/**
  ******************************************************************************
  * @file    digit_cnn_data_params.c
  * @author  AST Embedded Analytics Research Platform
  * @date    Thu Jul 28 00:52:23 2022
  * @brief   AI Tool Automatic Code Generator for Embedded NN computing
  ******************************************************************************
  * Copyright (c) 2022 STMicroelectronics.
  * All rights reserved.
  *
  * This software is licensed under terms that can be found in the LICENSE file
  * in the root directory of this software component.
  * If no LICENSE file comes with this software, it is provided AS-IS.
  ******************************************************************************
  */

#include "digit_cnn_data_params.h"


/**  Activations Section  ****************************************************/
ai_handle g_digit_cnn_activations_table[1 + 2] = {
  AI_HANDLE_PTR(AI_MAGIC_MARKER),
  AI_HANDLE_PTR(NULL),
  AI_HANDLE_PTR(AI_MAGIC_MARKER),
};




/**  Weights Section  ********************************************************/
AI_ALIGNED(32)
const ai_u64 s_digit_cnn_weights_array_u64[2669] = {
  0x3ea2ec3abe0621caU, 0x3d44a8fa3e9399ffU, 0x3e1d41f13c9d0af7U, 0x3ed9b8943e4424c7U,
  0x3da8c2313e086e73U, 0x3e8726233e364ac4U, 0x3ef02c303e8db14eU, 0xbe5eefbbbccac958U,
  0x38d66ed9bc29c466U, 0xbc325c823ea544e0U, 0xbda6e584be55bcceU, 0x3d7c47183d16b8ccU,
  0x3e8b216abd042fd6U, 0x3ee5841a3e235232U, 0x3f04a6a83e8dcdc8U, 0x3ecb48503e5aa52cU,
  0x3f4198443f0b1b93U, 0x3e09ff933f005f09U, 0x3f53a1283ef1ccbbU, 0x3d73c5ef3f0a1175U,
  0x3efde5fb3f40d801U, 0xbea2229e3ec056afU, 0xbe8f086ebf1bfea2U, 0xbf823debbf219e25U,
  0xbf88b62cbf8a842aU, 0xbd460215bdd8c8a5U, 0x3e679f4ebe39c5bcU, 0x3d181c433df891c4U,
  0x3e4c09cf3df511d5U, 0xbc8902563de206b0U, 0x3e7b07f9bd3d6348U, 0x3e913cb73e65b70bU,
  0xbe41ef38bcaa309bU, 0x3ead475e3e343c7fU, 0x3e0b05063e9e2a42U, 0xbbbc0a9d3e3a21b9U,
  0x3e8cff613dad3103U, 0xbf8d0a973eea9f9bU, 0xbfb1b784bfa57cdbU, 0xbf3aac6cbf987299U,
  0xbfaa0d39bf9f6fe7U, 0x3e6c8fadbe440814U, 0xbfcae3f43f0bd2daU, 0x3ee7e0b5bea304a9U,
  0x3f367ed23f0f6a40U, 0x3e590738bf608d55U, 0x3f23b97d3f10dc65U, 0xbeaea8eb3f41ac35U,
  0x3f7b78073e97b090U, 0x3f41904d3f411600U, 0xbf8b3720bf40800eU, 0xbfc52c0abfe09ca7U,
  0x3f1c9a38bfa38258U, 0xbda933a53e240caaU, 0xbdaf86e5bdcaf413U, 0x3f093b1a3f05b18eU,
  0x3f111c233f34d65bU, 0x3edc33c43f2d66e7U, 0x3f18c33f3f1b1acaU, 0x3ee8491e3f2d6eb5U,
  0x3e9036233e653899U, 0xbc940f033ef1f821U, 0xbdaa778dbcc00b28U, 0x3e52a7613de1a218U,
  0xbf08a3673d849babU, 0x3cfe7f6dbde7e4cdU, 0x3eb6b0763e96617fU, 0x3ed8344abe364392U,
  0x3e9097e43ec0f26cU, 0xbe084fb13dfa09f7U, 0x3e5cebac3e755815U, 0x3edafcc03e406ad7U,
  0xbe5c55553f09bdd1U, 0x3e612d9a3d9adb33U, 0x3e80b2ea3de3834bU, 0xbfa36f61bfd771dcU,
  0xbf867972bfddd559U, 0xbf840acebf5cbce5U, 0xbf8e8cf1bf544040U, 0xbfa4c75cbf793a4eU,
  0xbc3bdc24be4706deU, 0xbda888943e10ffaeU, 0x3f15d4f4bf5684b8U, 0x3f0d1e873f2f7961U,
  0x3da6764b3ea04896U, 0x3f94f9123f75ef00U, 0x3edce4233f749ebfU, 0x3e51489c3f00a29eU,
  0x3e050dc53e1df9beU, 0xbd7fc026bde4981cU, 0x3ec132f63e5a7e2bU, 0x3e58d58d3edc334eU,
  0xbe4e40053e94da81U, 0x3e20ebdcbe5ecb5bU, 0x3dc13bc03dba95a1U, 0x3e301fd43e3512d4U,
  0x3e89a6403ea7f013U, 0x3e2a77903e878b7aU, 0x3dd4f9dc3e9dbc76U, 0x3f040e573e9ffda1U,
  0xbb335d3fbc1c070dU, 0x3ec5a4ecbc2439c5U, 0xbc9445dbbbbdf4a8U, 0xbcd348fa3ed4f4b4U,
  0x3e5054f73e8c102aU, 0x3e3e62a23e015e31U, 0x3e26a94b3e3cc5f6U, 0x3de637ad3e69ced4U,
  0x3e39bbc0bec9fff8U, 0xbd323d5bbe7c39fdU, 0xbdfc2effbe6e22f0U, 0xbe1a76073d771342U,
  0x3e098f03bec06714U, 0x3e3156fc3bffcfabU, 0x3c0e314abd8dc6c5U, 0xbcc14933bcfaca2bU,
  0x3d420034be134075U, 0x3e2c680bbcdf9736U, 0xbbecfe083d3aa109U, 0x3d65bde03d44a817U,
  0xbe036f36bed66630U, 0x3e20bf9dbe1b9407U, 0xbe222ef7bd0ce745U, 0xbd692ee53c3ff9c5U,
  0xbd550c5ebe84cd83U, 0x3e541c823d827c78U, 0xbdc4a36ebe1c5424U, 0x3ca880af3e0d7f7fU,
  0xbe92bd00bdecc9a9U, 0x3d9400bdbc45134eU, 0xbe932b24bcd57f58U, 0x3c5aea1c3e4857aeU,
  0xbc1b1eb3bd9a8927U, 0x3d696db6be5244a2U, 0xbd573d60bc599d2cU, 0xbe054f453e070a74U,
  0x3e1917a0bed58ac4U, 0x3e109e83bf14b842U, 0xbf4a7e91bf430275U, 0xbf3b25283ca18a69U,
  0xbd1d2923be126255U, 0x3e1698cebd88e572U, 0xbd2d190b3e2dd8dbU, 0x3c41a33f3d706fa4U,
  0xbf09f348bdfb8688U, 0xbc7b6f893d61658cU, 0xbc45bd873d91e418U, 0x3d58007abd9ae3bbU,
  0xbecbe7cebd2e09c9U, 0xbd0be9b8bd4422bbU, 0x3cd6b1d83cc7b05dU, 0x3d8640a03d5340dbU,
  0xbd20394fbc2bb98fU, 0xbbf84fca3e1b5578U, 0x3c3f383dbd7cf585U, 0x3daefb7b3c945a15U,
  0xbef55c7e3d898c71U, 0xbe95480f3ca25d84U, 0x3e1efc603d572e26U, 0x3df252f63d054997U,
  0xbeee3353bbc5edd7U, 0xbea38f6b3d9c4f48U, 0x3dd2b0993d0af92fU, 0x3dcc66e33b7fe875U,
  0xbd40ad693de6465bU, 0xbe9973e9bd0f9dd5U, 0xbb13f0e43d9f8257U, 0x3d5fef553e0a3856U,
  0x3e29ffeb3d40b035U, 0x3b8bd21d3cb42db4U, 0xbda40807be1c1df0U, 0xbe2a931a3e2de719U,
  0xbef4990c3debe65bU, 0x3d768727bd5e0047U, 0xbd193b04be5511b5U, 0x3c3dbe3c3dcdd15bU,
  0xbe0a32b33d950b09U, 0x3d29266a3c928363U, 0x3c2ef3cfbda6c5e1U, 0xbb3202ac3e5e8694U,
  0x3d8a2c5a3cb59926U, 0x3d42bfaabba21618U, 0xbda70eabbe5f1730U, 0x3b7b65ebbd603571U,
  0xbd063d9fbbff5ee3U, 0x3e134f9fbe0f1880U, 0xbe10810f3da2f5d6U, 0xbd6b136a3e0242c7U,
  0xbd16dcf23e0aaac8U, 0xbef74bdebd8d0c14U, 0x3c3a846e3e1d4d5eU, 0xbda719063e785aacU,
  0xbe27b3dabd21ed1fU, 0xbf45e86f3e03d911U, 0xbd75dbf43d35e369U, 0x3d9027443da3e6adU,
  0x3cbddfdbbd4ef3c0U, 0xbe4d04463d35184cU, 0xbd9b85b9bd830cfdU, 0x3da02872be5a6474U,
  0x3d788d903dff8263U, 0x3e0641da3e01af8dU, 0xbd4f8ea5bdc9a698U, 0xbd7dea663e6dd49bU,
  0xbe82557cbd9c4aceU, 0x3bb5c1273e00252fU, 0x3c8232e6be99482cU, 0xbdb1277bbd19abe2U,
  0x3e6bd5ad3d669693U, 0x3e347729bd6b80d2U, 0xbded1a01be8beb20U, 0x3d5ce8ed3e6c6a06U,
  0xbd417a5d3cf7b2cdU, 0x3e0c21ebbde40c8dU, 0xbe41f03cbe90e4f5U, 0xbdb8e374bd85e6afU,
  0xbd45be79beaf08c8U, 0xbc7198d5bea970bbU, 0xbe700a99be10c650U, 0xbe409c7cbf0c8a3dU,
  0xbe783e583dd1c266U, 0xbe8bf9243dd6f8d8U, 0x3d4c4376be01a9ecU, 0x3dacad26be67a1d6U,
  0xbd8e52863e35f4fbU, 0xbe5c5db03d87646bU, 0x3dd3b2f5be130254U, 0x3ca380debe8adffcU,
  0x3e0997ae3e2c6c55U, 0xbe7737f53e10ca18U, 0x3e2d736ebe23fe96U, 0x3e04722cbed5abd9U,
  0xbe48ec7a3d59a194U, 0x3e69e2b5bdedc182U, 0x3cab258ebdabb813U, 0xbd84ecb83dcaeea3U,
  0xbd163cc93e197002U, 0x3e4196503e4b8a77U, 0x3d953c55be5ee46cU, 0x3ddc98b0be95e89eU,
  0x3dbc56b3bd475100U, 0x3e516e2c3dbbad9cU, 0xbcfb0d09be8497fcU, 0x3d851f65bf345bdaU,
  0x3c3ff6f43d6eb05fU, 0x3dffb150bcb057fdU, 0x3d51b594be8cd980U, 0xbdb6ee30bec31828U,
  0xbf1344bdbe8ec813U, 0xbece5281beb1dbedU, 0xbdf2a79ebf3d5dd6U, 0xbeafbad7beed424dU,
  0xbca07684bc91a9baU, 0x3e4447dbbda1aa1cU, 0xbd5e046bbf0370c6U, 0xbde42191be63aa2eU,
  0x3da34c193d21cde5U, 0x3e7617b23e366512U, 0x3e809acebe0bbb4cU, 0x3d4d33b3be1f7a4cU,
  0x3e36f70f3e64186fU, 0xbe5d01d13e86c262U, 0x3e727982be83bbcbU, 0x3d435ac2bef2b026U,
  0x3e59b7cc3e024f69U, 0x3df6441a3e0277fcU, 0xbd4491e5bda34555U, 0x3d791a113e82e2f8U,
  0xbc72ba1b3e3363a6U, 0xbe14a0373c1c0bbbU, 0x3d56f495bea3c114U, 0x3e23d4a6bf3c1f66U,
  0xbe0678e83dee8dd6U, 0xbdfdb7303e559792U, 0x3e639a72bebcffc9U, 0x3e211e8ebf0fbab8U,
  0x3e7aaddd3dede036U, 0x3d30c52d3e12c4f1U, 0x3e5ba833be440171U, 0x3e542fcdbe524378U,
  0xbea517d0bd84d57fU, 0xbd8f1654bd3be1f4U, 0xbd8a0d8dbcf3f95aU, 0xbd9fe8d9be5bc151U,
  0x3ea80a1b3da1a48aU, 0x3e3733543e0c5556U, 0x3d01e683be0c8371U, 0x3d93dc473e685526U,
  0x3dc10765bd0180b5U, 0x3eaf04d2bcaeadb0U, 0x3cf9113fbe104fd5U, 0x3dc6d5a83c8c0192U,
  0x3e321ef83d66b625U, 0x3dcdf3743e0b876fU, 0x3e39bc61be89ce40U, 0x3e0e173cbeecfe2bU,
  0xbc1352fb3e8c0152U, 0x3e5328383cc5f240U, 0x3e09114dbd388747U, 0x3d2266cebc5e2984U,
  0xbea7a3703dac3c62U, 0xbe3967283dc40ccaU, 0x3d9c0fe9bf2c8ed9U, 0x3df60108bf250e41U,
  0xbdefe9fc3d804f19U, 0xbed6beaa3dbc445aU, 0xbda56f63be034306U, 0x3d19f667beecc7f4U,
  0x3df1a0733e6790a5U, 0xbe60dc6a3e8a7864U, 0x3da5058c3db33c14U, 0x3e4a2d50bc8019b7U,
  0x3cfb87873dbcf9b4U, 0xbe13c5c83dd1e3a1U, 0xbd91190e3e72a073U, 0x3cda0a623db8b7d8U,
  0xbddcb43d3c6806daU, 0x3e60849abcf46344U, 0xbe1825273dd08169U, 0xbe11f7633e04ed2eU,
  0xbda557ecbd2e4e0dU, 0x3f192e40bd8a782eU, 0xbcc98ec03db9e7c8U, 0xbe2b59e03d0abca8U,
  0x3d3fbeb5bded6abdU, 0x3e0f7c54be8f53feU, 0x3c8aa21cbe493591U, 0x3bb5c0273e6addddU,
  0xbd5a82f7bccdc247U, 0x3da56b5d3d7cb2aeU, 0xbea5a01bbf260316U, 0xbeabce3f3d85d0a0U,
  0x3e4a83b13dbd3da6U, 0xbe5eb98d3dc5a134U, 0x3e347c8cbf8d9f07U, 0x3e04d4963e2e7343U,
  0x3e337afe3dcfd2e8U, 0xbfab080dbe0facb6U, 0x3d6d1995bdf1953eU, 0x3d122e4dbe5093d0U,
  0x3ddcae6dbcdefabaU, 0xbfb573a73c8011ebU, 0x3df093913f06716aU, 0x3cd170913e9e0638U,
  0x3e1b4368bc97612eU, 0xbf7043ce3d6f130dU, 0xbd9d189b3ebeb62dU, 0xbc6a81c23f76b375U,
  0x3d6cb05e3c4e93c3U, 0xbe23f60ebea30e5bU, 0xbe68915c3e5f25c9U, 0xbe4281fd3f7e8f66U,
  0xbe53f80fbeb0d241U, 0x3f14ee32be9a89d1U, 0xbecc0890bf4e4819U, 0xbecbcbc13f09c8fdU,
  0xbd978f21be6baae1U, 0x3e9b4604be5dcc09U, 0xbea88156bfa8215bU, 0x3c592f333e65e567U,
  0x3d51a5e23e339402U, 0x3e2df9033e164f96U, 0x3db03ff13ec8633fU, 0x3e4736743e118ba4U,
  0x3d9204d0be42ec50U, 0x3d468139bd53842eU, 0x3e2cdada3e365dc0U, 0x3d9bc9143cad4e41U,
  0xbd71c0d7bece25c3U, 0x3e142663bcbe242fU, 0x3db1e0463d7b0855U, 0xbcc697763d91de09U,
  0xbdc6d992bebebcd2U, 0x3d6efa57bc983cb0U, 0xbe8ae406bc271b4bU, 0xbddd51253df0dae7U,
  0x3d9d2e963de97758U, 0x3d826013bcd6201dU, 0x3d95d4eebc8538ecU, 0xbd101470bc351ed9U,
  0x3e7c3f42bd9f3d9aU, 0x3df04fb5bd9d0d9eU, 0xbe1883c13d395d46U, 0xbe1dd376bcac4eccU,
  0x3de83bbcbe19977cU, 0x3e412815bd96f722U, 0xbbde1ae2bcc85d6bU, 0xbe8c6183bdb92caaU,
  0xbd76c377bec8da1bU, 0xbe3d325abed47a44U, 0xbece9604bebc5739U, 0xbeb46e0dbdcc6450U,
  0x3e158dcf3ea2a7eaU, 0xbb1a7d373c20653dU, 0x3d8b41f93e2dba82U, 0xbd293a6abd7191c2U,
  0xbd3666f93eac9ad3U, 0xbd2367563e0ce61bU, 0x3e0d1d353e0e37c8U, 0x3e286ac7bd627acbU,
  0xbeee34adbc627eeaU, 0xbdcddc063a45ebd7U, 0x3e5d7ab33d199150U, 0x3d8f1a7abdcb38c7U,
  0xbf2da013bdf87ac7U, 0x3cd3a8ed3d71beeaU, 0xb9e33332be138d34U, 0x3dc206ebbdedc2beU,
  0xbe60d66f3cb4270cU, 0x3e0be280bd2a65b4U, 0xbd95bf05be110b02U, 0xbc93787bbe930762U,
  0xbe886419bd92dcf3U, 0x3e7948b0bdb1290cU, 0xbe589d11be1235f3U, 0xbe8246abbea59b49U,
  0x3dcf8513bdba7800U, 0x3ead68a6be2dc1ccU, 0xbe5d6463be1bb4a9U, 0xbd974093be2273daU,
  0xbe23d79d3ccab95bU, 0xbe75cff3be0ef2e3U, 0xb999633bbd98271bU, 0xbe2a7e4cbd8480a3U,
  0xbe05493abe5d7903U, 0x3ca8d0123d851adcU, 0xbcb4bde83b175a01U, 0xbd7c8e05bd2dbbdcU,
  0xbd915520be42ca9fU, 0xbd58c22ebe0028d3U, 0xbbabab9c3e3d519dU, 0xbdc949043ded79c9U,
  0xbe9610d0be088598U, 0xbe6668273e1bf8e7U, 0x3cc3448a3e178660U, 0xbcc10fd03dbf6896U,
  0xbec52d443df07b2eU, 0xbe89a2883d80961aU, 0x3e6c5ca1bec50eefU, 0x3e710cdebe9dd207U,
  0x3e455e653dc6e4a2U, 0x3e64358e3e1a768bU, 0x3e9e833ebd1ffbc8U, 0x3e535ec1beb53dacU,
  0xbd8adfc8bd9cce75U, 0x3f17bb12bde9b761U, 0xbd0553b9bec75c22U, 0x3c8f9a0fbf45262eU,
  0xbdbf4b08be045d6fU, 0x3f37e2c2be5d3a4fU, 0xbcbdb9e8bf0d4105U, 0xbcca5cfbbf07174aU,
  0xbe0a5ed9bd6727e9U, 0xbd476131be0ee660U, 0xbd235bdcbf11e319U, 0xbe51f14fbe9984e3U,
  0xbdbc7b05be0772bdU, 0x3e47a8893e3a174cU, 0x3e1f470a3de5b4f9U, 0x3e6129da3d940a00U,
  0x3d8768aebe8029c8U, 0xbe2a243fbe08f47eU, 0xbe7579e53e5fb52aU, 0xbedb45b8bcdd18dbU,
  0x3e414f7abe2ca627U, 0xbc02c615be6105f2U, 0xbe5ac4573ea9b542U, 0xbd892bd83db79601U,
  0x3c6efbe23e1d1011U, 0x3d582cbc3d4e1473U, 0xbd8d11c1bec20d18U, 0x3c7f2e603d390975U,
  0x3ee49d6f3e30c1e9U, 0x3efc51c13e6998b0U, 0x3e2e0652be72d443U, 0x3dfeda033d83fcf8U,
  0x3c041ac83d939f44U, 0x3dd3e1acbdf58988U, 0x3cfe9214bf0438fcU, 0x3bd64e03bd9ce2ccU,
  0x3dd7c4033d34861bU, 0x3f41ebe0bc285ba1U, 0x3e4831c2bf444bbeU, 0xbcd63911bf27e925U,
  0x3d9c6821bd7d42cbU, 0x3e139d6cbef309e0U, 0xbd9a5217bde96340U, 0xbd686eb4bac1cb3cU,
  0x3e97990c3edb65e2U, 0xbaf0824c3f092fa0U, 0xbd3e2ed23ee2f40aU, 0x3f0cb78fbd3c1cfaU,
  0x3eaa2338be849441U, 0xbe265e9ebe3714b0U, 0xbe297166be6ffe23U, 0xbe9aa3823d112313U,
  0x3e1736df3cdd44e5U, 0x3e1ea8103d25dbf0U, 0xbd8257363e869bedU, 0xbd285bef3e0bf19bU,
  0xbea8d46cbe2ddb1dU, 0x3ec5849d3c3dcd4cU, 0xbe6f78eebf01059fU, 0xbe3d666abd30e9d5U,
  0x3e47b7bb3db03cccU, 0x3ecb99ae3dd1f9e0U, 0x3e95e473bf0508a3U, 0x3e1eb7b0bf559a5eU,
  0x3d7133fd3db90e79U, 0x3e4cfcafb892c48cU, 0x3cd4f901bee44e24U, 0xbd3e38c0be5c3907U,
  0xbd938755be4bc0a6U, 0x3e69fb1abd55d188U, 0xbe6ccedabf029d48U, 0x3d56d629bea22a26U,
  0x3db62737bde53b92U, 0xbdbd50c4be3f9d34U, 0xbe3638373bc94a07U, 0xbe8cbc033d88c390U,
  0x3dd885753e7de5c1U, 0x3a43ca38bf643eecU, 0xbefee8e0be9fd0d1U, 0xbf54b4d9bd7439bfU,
  0x3e142950be91b7e9U, 0xbde951dabdf57e5cU, 0xbeb87d32beb47d24U, 0xbdb28540bcc003d1U,
  0xbd4cd98ebcbb045fU, 0x3e2534103b299a3bU, 0xbcbce4edbe0fe6b1U, 0xbdbea1a63dd51170U,
  0xbee20acabe0e4563U, 0xbc1c1e60bdca5dd0U, 0xbe41b161bf00c2ccU, 0xbc62f465bda35714U,
  0x3ea8f0143ea49431U, 0x3f0029dc3e35340aU, 0x3e359282bf2dc390U, 0x3ddd9af63d0e7190U,
  0xbed9409abe3bacdfU, 0xbcf0403dbe65fcf6U, 0xbdf20346be87ad2cU, 0xbe77f6b1bde48fb1U,
  0x3e4795c6bd6a6d98U, 0xbeb0cb9a3d545680U, 0x3cebf8303e0ca2aeU, 0xbb25f9043db37dc1U,
  0xbeb8a4af3d8f7a76U, 0x3e900b953e3b80e7U, 0xbb8d4c6a3da92dafU, 0xbd9b862d3e1d615fU,
  0xbdb9c72dbea9df62U, 0x3c8510773c158521U, 0x3e1a7a0e3e9b0d01U, 0xbe14318e3dbd4809U,
  0x3ebfd67bbcf5138aU, 0x3e65e24bbdc4f894U, 0xbd4fc1923e7b2071U, 0xbd8b1e453e9a74a1U,
  0x3dd35220bcc2c3ecU, 0x3e74041d3df20f07U, 0x3d54908ebcee41fbU, 0x3dc6d8b7bda9d1ffU,
  0x3dfeab1a3d74265bU, 0x3e8c2f52be0126dcU, 0xbca7e1c2beac2575U, 0xbd2d33133e24fda8U,
  0xbdefdff4bdad1f46U, 0xbc9de5243d89548aU, 0x3da0772fbe1ec5feU, 0x3bf1845dbed23b40U,
  0x3e41b8553df4cb8fU, 0xbf2959ab3e383d0fU, 0x3c95d2ac3dc8b153U, 0x3d9784f53dbbe802U,
  0x3e875fb03d0a97efU, 0xbecae7113d570a6fU, 0x3e2ce0c63eac3972U, 0xbbf1e45c3ef5ff46U,
  0x3dc015793d06a821U, 0xbddb1f523de7367bU, 0x3da0dfc0bd8c8d93U, 0xbe0d98c4bdbf3ce1U,
  0x3de6631ebe898cf1U, 0xbdeb2e53bdf91663U, 0xbef4ba88beb145a5U, 0xbea5328a3e0a53e6U,
  0x3df75b5a3e29ca0cU, 0xbe8bc9d6bd88cce3U, 0x3d351d1cbf5f89e5U, 0x3e03c27e3cff16afU,
  0xbc8e9aad3db871b8U, 0x3e8644fc3d005204U, 0xbe5a0a85befed5edU, 0xbe7337863e87cd0eU,
  0x3d99b0a8be27fd7fU, 0x3d388335be98af43U, 0xbdbbd226bf8260abU, 0xbe2a3f1c3f3f3fb6U,
  0x3e16f40ebcb66007U, 0xbecc3107be0f0da5U, 0x3dcd52dfbf0bdd3aU, 0xbe5dbc9e3f7f6b9bU,
  0x3dbcebf63e003ee6U, 0x3db4850cbdc5b301U, 0xbdb9772ebe17e48cU, 0xbe0ab3773d661711U,
  0x3e14325e3c2896e8U, 0xbe8e455e3d1865d2U, 0x3da9d8f7be93a5a1U, 0x3dab1ce7be3cef4eU,
  0xbe055173bf0cb33dU, 0xbdd6c6fbbec1e0d6U, 0xbea9f75cbd22f456U, 0xbf283134bd810787U,
  0xbe2a0a85be91ed87U, 0xbe6560e6bf0f7fe7U, 0xbed6471dbf0916c2U, 0xbf15a016be86c330U,
  0xbd1cbcbf3ea663eaU, 0x3d913de73e2d67e2U, 0x3e83ede8bc882393U, 0x3e3ff978be2c8386U,
  0xbe1d4ba73e8c2fecU, 0x3dcf9be03e04fc48U, 0xbb0afd3b3e6ed4e0U, 0x3d721715bb573bd5U,
  0xbe8440df3f0a356bU, 0x3cdbceee3dd2b058U, 0x3e2994993e5dd78fU, 0x3d983b423d968627U,
  0xbe72e5d9bcaba095U, 0x3b920b473df499deU, 0x3c28a1a93da7278aU, 0x3dc977103cf8c266U,
  0xbeb9371e3d8003e7U, 0xbd0502473df9b9e0U, 0xbaba60373cd00f1cU, 0x3be06e233ca0ff45U,
  0xbf2a577dbeb1d142U, 0xbddac784bcdca163U, 0xbdb6cbddbdf2b206U, 0xbd9ed5b4bd41dc9cU,
  0xbe4509f03bc916edU, 0xbe8dc08fbe1fb8e0U, 0xbd6e9dcbbd8a8f90U, 0x3c8eada5bda5f001U,
  0xbe6259843e033533U, 0xbe09a4483e99c4f9U, 0x3e73b8ed3e306616U, 0x3e07c41fbc4fcb3dU,
  0x3e49e1d6be65b790U, 0xbdff83a4bdd27697U, 0xbd22103ebd65e415U, 0xbe32d22dbdc940a2U,
  0x3e05e3c7be1f257aU, 0xbdd9d8b4bd7bcf94U, 0x3d858ae53de5b568U, 0xbd4c36603dd9921fU,
  0xbe1ec7a7bba0da4eU, 0xbe8a128b3e0e2cd5U, 0x3d7642053d8b957eU, 0xbab97bc83dd2e8e4U,
  0xbe605e45bc575646U, 0xbedb0c1c3c829ecbU, 0xbd2581763d6d1102U, 0x3dd4ddbc3e575382U,
  0xbe216d7a3dac372cU, 0xbf03597bbd13ea20U, 0x3e1905ed3d52ea1eU, 0x3e1ae9d9bbf9ba91U,
  0xbeaa23cf3d5c9b16U, 0xbeb997513d4d6f78U, 0x3b13898f3d286c1aU, 0x3cff6accbe5ab1f6U,
  0xbdc64d46bc2b82f8U, 0xbf080db9bc66c8f2U, 0xbda098c7bdf6c59fU, 0xbe2c14fdbdb2f7eeU,
  0xbe6794713e7ae40eU, 0xbd2af868bd086b20U, 0xbe196ab03d0bf788U, 0xbdb83b26be7e01caU,
  0x3e6da519bc5ceebfU, 0x3ca2cb56be219de5U, 0xbe2a8ebe3d8f677fU, 0xbda656b0b96824e2U,
  0x3e11d4b1bda82ffcU, 0x3d951f44bdc795e4U, 0x3c0965bd3dd5bf5eU, 0xbd83a57f3e4499c4U,
  0x3ce07fd3bc4a41faU, 0xbe3d7ed23c887d0dU, 0x3db18e313e2e1ecdU, 0x3d06901b3e580debU,
  0xbe094d51bd6836bcU, 0xbea7bcdebcbf5011U, 0xbd893db1bd870741U, 0x3dbbb7db3eb6708bU,
  0xbdbc91473d727ed5U, 0xbf077482bbc792d4U, 0x3ce469fdbd713af7U, 0x3d94e8893de9d0d0U,
  0xbe5e1fb83c84da17U, 0xbef2474d3d564563U, 0xbcc9d127be8db556U, 0xbc5863b6be9225e5U,
  0xbba064443cbe14eaU, 0xbe6c58533de05a28U, 0xbc5a8af7bdffb78cU, 0xbcaa3231be584178U,
  0xbe171be6be5f5a47U, 0xbe560308be9cec08U, 0xbd4416e13d08a357U, 0xbe8ecf4bbe66751aU,
  0x3edcd62fbd2215abU, 0xbdf82a77bec304e5U, 0xbde535103f38c5f0U, 0xbded35de3ecbccffU,
  0x3e224ff6be813a1eU, 0xbd7b2a77be80bd70U, 0xbead52b23ebd9dceU, 0xbe8aada43f4f2993U,
  0x3dbc114ebe2ee063U, 0xbe89f190be0bad69U, 0xbe209a7c3c2e24beU, 0xbe480fea3f2a174bU,
  0xbc5ddf6fbe9821e3U, 0xbcf9fcaebe2c3320U, 0xbe8b9fe9be1554f5U, 0xbe93a4dd3ea7af42U,
  0xbdc7669b3da38064U, 0x3d9f76d8bd161d38U, 0xbda9117dbe150206U, 0xbdc97dcbbebeb46cU,
  0x3da655553d0e8086U, 0xbb6499543d71cb54U, 0x3d08563abebc07a5U, 0x3bdbd277bec80db9U,
  0x3dab8041bd7d47e1U, 0x3eeb52f8bddc3ba3U, 0xbd5436e6bde0ccdaU, 0x3deca0cfbdf9ab9fU,
  0xbd96ed73bea0b268U, 0xbddd9543be309c34U, 0x3d3fbd533e9a721bU, 0xbe558e9b3d83deb6U,
  0xbd991e8ebeac46d2U, 0x3e539e92be95b28eU, 0xbe83aeaa3f467fb2U, 0xbee3a20c3e8a3736U,
  0x3d294212bef3ff89U, 0x3e8ef8d8be850e2cU, 0xbe8e79243ee802a8U, 0xbea4aa443e2b1cdaU,
  0x3a58d65dbe97cd7fU, 0x3db4e62ebd981236U, 0xbe4193103e36696fU, 0xbe5259143d821fe8U,
  0xbddff8cabd99f201U, 0x3d4b3d0bbd719dc8U, 0xbdd5282a3d86562cU, 0xbd10d510bdd6c3cbU,
  0x3c2bcacdbe093ad0U, 0x3e900b1c3da2411bU, 0xbcc4b99fbd2f9df5U, 0xbd98975bbe1eaba6U,
  0x3c3ae7603e1cc8b9U, 0x3ecead1d3e2797baU, 0x3e00b636be2334a1U, 0x3e071794be96e79dU,
  0x3e64ecaabdc785dcU, 0x3f2aa39c3e2640a3U, 0xbda496da3e710fa7U, 0x3e0984dc3e2ceef0U,
  0xbe0caeea3e9e4a95U, 0xbc8ad2813e30a82bU, 0x3ecaf3e33d9d48c8U, 0x3de266d63e13ae79U,
  0xbde2b4d0bd9e494dU, 0x3e75553d3d384280U, 0x3e5a75153ddc3099U, 0x3bb6cf913d5f140eU,
  0xbe0627b03dab001eU, 0x3ebd47d13dee8f36U, 0x3e2dc6acbb668b4aU, 0x3e1435f5be535b05U,
  0x3e176e383db3ce20U, 0x3eecaef93e25ad7dU, 0x3e039726be5aa5c0U, 0xbbd934ccbecf3339U,
  0x3c629c823e4bc7a3U, 0x3ea589873ddc312fU, 0x3ccfe6d9be090669U, 0x3d29a4e7be8b13d0U,
  0x3d9a54003d4f9771U, 0x3e9126d83e4f3f7eU, 0x3e058380bdf8d0e3U, 0x3dc05d373e05866eU,
  0x3e41a34f3de6740cU, 0x3dfcdba7bcd2db3bU, 0x3dbe63a43e5f9a01U, 0x3d435e803e7e0287U,
  0xbd765a6ebd6468ccU, 0x3e26c75abde2eca9U, 0xbe08d8853f203e6fU, 0x3d955d2e3eccaed3U,
  0xbde34f933df0120fU, 0x3d93feed3ee61389U, 0x3e89e7f53e7d8ccfU, 0x3e3c42b7bd7b58c6U,
  0xbd43ef583dfc0664U, 0x3dfda07c3cf203c2U, 0xbdbf8e95be000524U, 0x3d187bc5bec5065cU,
  0xbdac7be03de2baa0U, 0x3e78aa1c3db36450U, 0xbc1f662bbe3eeb26U, 0x3d936b19bea92db6U,
  0x3e1bf1fc3d727e51U, 0x3e2f63c43e1b1ddeU, 0x3e0bc1bbbe1fc306U, 0xbd8d500ebe93b3a4U,
  0x3c8639ecbd2e2eeaU, 0xbd854e7abe00b1eaU, 0xbd2322583d4de3d6U, 0xbde9f56dbcb60c23U,
  0x3d8e97a43c11497eU, 0xbf151abcbc50f484U, 0xbd8bebed3eaf824aU, 0xbd24d48d3f21c8edU,
  0x3e29dd2dbc443443U, 0xbf41ddd0bdf508beU, 0xbe0b43523f4389cfU, 0x3c8c26323f69f87dU,
  0xbdae8df5be68b3feU, 0xbe423be2be1a5d5aU, 0xbe7cfe2c3f2a8214U, 0xbda7b39a3f039571U,
  0x3d43108b3e821bd3U, 0xbe241a8f3e02257fU, 0xbdd5c64dbf2787a7U, 0x3e561cb1bdfcb693U,
  0x3e6893573da4920cU, 0xbe600af93d9815e0U, 0x3d3c6771bf3b70dbU, 0x3e6eaa97bdbfed64U,
  0x3d90b65c3e06c3feU, 0xbef698ec3da7b31aU, 0x3e7ca164befb38dbU, 0x3d626a13be0c1d27U,
  0x3cc828703e0daa67U, 0xbefbc2c43dca8b10U, 0xbbc7eababca4d021U, 0x3c3340e23ebf715aU,
  0x3d3c3476bda6847bU, 0xbf407962bddea74bU, 0xbb2cdff03d1076d5U, 0xbd992a7c3f14ee59U,
  0x3da94eb0bd59296cU, 0xbf864fabbd77fc0cU, 0xbdee4d3f3f25e87fU, 0xbe2e7d323f5495a4U,
  0xbe1eb66dbdde4fe4U, 0xbf88b7d8bea8872cU, 0xbe92c8aa3f4afeb4U, 0xbeb149893ee50b0eU,
  0xbe4eac3ebdaf7574U, 0xbe8285743d409e3aU, 0xbd171b523f2e8177U, 0xbe3a48643acee79aU,
  0xbeb973cebee73b61U, 0xbe8671193efb6534U, 0x3edb6f613da32579U, 0x3f01fcd2beb56318U,
  0xbe9c1b94bddad95aU, 0xbe31359d3e201e60U, 0x3e48b2a73e8935f8U, 0x3dd1af95bdc41ffcU,
  0xbe63233fbe133dc6U, 0xbe02612b3db8ffbeU, 0x3b99ab903e0412c5U, 0xbccd2da6bd6e2022U,
  0xbe4cbe75bd0b2b02U, 0x38d2d85c3d60a5d2U, 0x3e13a8713e14cbdaU, 0x3de0fcc6bd721eacU,
  0xbe12245a3e07c0abU, 0x3d34ba9f3e3c18d0U, 0x3e078a903e01e6d5U, 0x3e704da8bca1187bU,
  0xbee76be0bbf3f6f2U, 0xbe3bc5a23df89682U, 0xbbf661f03e34bf30U, 0x3e918a9c3dbb3a86U,
  0xbedfa114be607945U, 0xbe6dbe163c614659U, 0x3d9dd7043e420d56U, 0x3ea0e9f83c526ac2U,
  0xbedda003beb6fd28U, 0xbeda487abdab2b34U, 0xbf1a1c19be7a7a34U, 0xbd72a7abbe838176U,
  0xbe9425c93d24d4c2U, 0xbe735b133d0cdbe9U, 0x3e26284a3da6d8a2U, 0x3e529692be67f64cU,
  0x3e41c52a3e2b4ad2U, 0xbe3624453e10b766U, 0xbd98580e3cb81cc5U, 0x3c3cc55039dc0cc6U,
  0x3eeecb29bd09b83aU, 0xbddf1c843d8ace7bU, 0x3e279dc03d6897ceU, 0x3d85d72e3dd13c0fU,
  0x3ec60784bd0aef76U, 0xbdfa0168397b1cc4U, 0xbd127f083e0fd832U, 0x3c4adb413e319fcdU,
  0xbe72c2b73de0013cU, 0xbe7c38193d70f105U, 0x3c474ac23e312c03U, 0x3e0fdf303e1e3205U,
  0xbece6a403e32bf1dU, 0xbeabb7b73d9c04e4U, 0x3da2c90ebb9a6c20U, 0x3b800e02be04be67U,
  0xbeda08b13e0d4c7aU, 0xbedea9d53de93df6U, 0xbdad239f3d19d48dU, 0xbd751cb5be670b33U,
  0xbe8f276a3e812acaU, 0xbf10d9f63d8605f6U, 0x3d90fa883e05336eU, 0x3df08fa1be929eb8U,
  0x3d3c8bbdbcfedd85U, 0xbe42a6883d9b45f1U, 0xbde03f3fba703521U, 0x3d03f19fbe5ceeddU,
  0x3e32d59abe076c91U, 0xbdfa79cabd9df0c4U, 0xbce5c7af3e970a5eU, 0x3af541d03db24140U,
  0x3e1d034fbd0816eaU, 0xbe95ad233d486c8fU, 0x3d061c123ea7f2daU, 0xbdf1f99e3e8bb038U,
  0x3d02a865bd108749U, 0xbefc9dd7be2078aeU, 0x3dbd9e883e98999aU, 0x3cb870c33ee93ba9U,
  0x3e9094133dfe98ebU, 0xbeac9aa03dd359feU, 0x3e19a2eb3e3a463aU, 0x3b8951613e636eccU,
  0x3d4f06df3d87aa28U, 0xbe421d323ddee818U, 0x3d9d43dfbe0c0388U, 0x3e20f1cebe03930eU,
  0xbde559a63e2d9b42U, 0xbe4199513e3d8939U, 0x3dbc4b73be479751U, 0x3e3840f9be9f5bf1U,
  0xbde5cf62bddb3732U, 0xbeabaf213d89b2d2U, 0x3e459a80be391144U, 0xbd8285a2be4e4ff5U,
  0x3c4738ed3e7d1dccU, 0xbebba0753d79ec6fU, 0x3e395408bd47db81U, 0x3e27d98fbee05b82U,
  0x3e2e3ff8be8345dcU, 0xbc4497c2be805c5eU, 0xbe6be9ff3f724e7bU, 0xbe8be4903e23adf5U,
  0x3d8da4bdbe16e5bdU, 0x3e58d4d3bea317f3U, 0xbe8f5b453eac0963U, 0xbdfa50d23e8b8824U,
  0x3df3aa6fbe83c3fbU, 0x3eb14971b9c058f4U, 0xbe3493963e03a822U, 0xbd97fcb13c8575b3U,
  0x3ea60bf33cbe30b2U, 0x3e74feeb3e63e3b9U, 0x3d1b2a283c39f142U, 0x3dd31e9a3d6c4721U,
  0x3e3495533da872dbU, 0x3d8faa0e3d123cc3U, 0x3e42ecf5bdcabe4eU, 0x3e394cbcbd23f117U,
  0x3e53ce443e866d79U, 0x3e4ffdfc3e3b61e0U, 0x3e5bede7bed6515eU, 0x3e23416f3def886dU,
  0x3e0154213e3a3332U, 0x3d331c57bda38e4fU, 0xbc5bbc89bf70dff7U, 0xbcd44900be860986U,
  0x3e1101aabe5ef748U, 0xbe9638e2bc525cb7U, 0x3e241bba3e02d349U, 0x3d4ecc95bdb8d9b9U,
  0xbe94fd6cbec01f2eU, 0xba96ac19be484facU, 0xbe9213b43ed0e4d3U, 0xbe959d163e85945aU,
  0xbe9c5e0bbd625463U, 0x3e11d9fabdfb5c63U, 0xbe9c3be83e611376U, 0xbd43c2d83e45d8edU,
  0xbdfe0120bd928b0dU, 0x3dc127a1bca2b0d5U, 0xbe226e293c4689b3U, 0xbe0e1d183e519d3fU,
  0x3e4b84153e6ea8a7U, 0xbca8e06ebc4d0eabU, 0x3dabfeee3e31a4edU, 0x3e1b23103e99a464U,
  0xbdfb2951bd867298U, 0xbf073688bd5ba1abU, 0xbd723709bcbef39aU, 0xbc1a04c73e9313feU,
  0xbcd9cef6be34c8ddU, 0xbf11ce89bdd73fc6U, 0xbdeee7833e15df7fU, 0xbda54c543e80d0afU,
  0xbebb3f913c874a7aU, 0xbebece083e5add58U, 0xbd6555c93d59eeb6U, 0x3c71cea63c783d37U,
  0xbf039d933eb4d05aU, 0xbe2d249f3e174c41U, 0x3e1a27b3bd93d4caU, 0x3e912cfbbead8adfU,
  0xbe6342ddbe03469eU, 0xbe99ae18bcf5c415U, 0xbdc159fc3e5737c6U, 0xbe1282bc3e84e44fU,
  0xbea64e95be062dd8U, 0xbf0fa7a3be8e10adU, 0xbe78bf4f3ec4ffe2U, 0xbe8443dc3f01e049U,
  0xbe34e189be149948U, 0xbf0c1f78be0a4b56U, 0xbdf67e133ec76012U, 0xbbed00903eaac1a6U,
  0xbd83f349be160b90U, 0xbec84766bdda332aU, 0x3dc896043e5e9ed1U, 0xbbcca38e3ef9d91bU,
  0xbbb40b86bdea2c2dU, 0xbe93880f3db16d1eU, 0x3ce252ea3d732e20U, 0x3cccdc0e3e0e2d37U,
  0xbe29e3a0bd06c11fU, 0xbeaa8d303d1aaa77U, 0x3dacb3d9bda0fb73U, 0xbd821ee1bdb88a84U,
  0xbc37d53b3e14f8dbU, 0xbea559e23df218c3U, 0x3e877c35beb4e88cU, 0x3d520a0ebed97f62U,
  0xbe5fe9b23e19d635U, 0xbe3e35673d666ed3U, 0x3dd7852d3ddfbeeeU, 0x3cea65f5be8cd16cU,
  0x3ea6d9753d9b212bU, 0xbe1c7b35be50d513U, 0xbcdedf5c3ecd53d4U, 0xbc37b8c33e9fb461U,
  0x3debf49dbd565f05U, 0xbdceaeb43df0ed35U, 0xbddfe0df3e5a7074U, 0xbcf022d63ec01449U,
  0xbda2e8a0bdfc6df2U, 0xbe30cfaebd071596U, 0xbe08f13c3e78629bU, 0xbdd7ef303e2752d7U,
  0x3e1144a9bdaf53c1U, 0xbe4de7963cba6986U, 0xbe7e7f2c3e8b818fU, 0x3d4415cf3e0b12a9U,
  0x3c5f35f73e363fdcU, 0x3da62ae43d856602U, 0x3d0212e13bcc16e5U, 0x3d9ec3503cea13e6U,
  0x3d6483cf3dbb57a3U, 0x3d3c02673dc59169U, 0xbd94cd05bee28376U, 0x3cd742c2be777e49U,
  0xbd5aee013c979a8cU, 0xbe070fb33c2d0e52U, 0x3dfe92aebe8bee29U, 0x3df50a86bf05b92cU,
  0xbe8a09f93d7a1823U, 0xbe5c8fd33ea768ceU, 0x3ee1c95e3f6a92b4U, 0x3e529aecbeb536feU,
  0xbdf3c48bbe78124aU, 0xbde82c7a3c11b8ddU, 0xbe4342443f3f2cb3U, 0xbdca2885bd33bfbbU,
  0x3df04ab4bdc68a2dU, 0xbdce3031bd26fa1fU, 0xbd9e83d23f276b77U, 0xbd5be7ea3f32a39cU,
  0x3de45e6d3e1b5cbeU, 0x3e832939bd9243dbU, 0x3c45a9203ecc3f43U, 0x3dd681c13ec5c4b2U,
  0x3d2d602dbd0e3428U, 0x3f06046cbc821692U, 0x3c6f4e9f3e03942fU, 0xbd76e5683d8763eeU,
  0xbdbe82753b8251f1U, 0x3f1d82533d72e7beU, 0x3c036aa5be17dad0U, 0x3db86497becc84c5U,
  0x3d12eaa83e37629dU, 0x3e39e8a93d950628U, 0x3d3d6f5bbeee29f7U, 0x3e0528babe5e4389U,
  0x3cb95f8c3e1aa4deU, 0xbe96e8f63e197b09U, 0x3cf1f96fbf68332bU, 0x3dc9b7e3bec4d5c1U,
  0x3cb30d0dbef3cacbU, 0x3e0d725cbd8c9bcdU, 0xbe4f0c17be0df1ffU, 0x3c0913a93e0d2a23U,
  0x3d83371bbee45798U, 0x3cd7bccebe3f7c92U, 0xbe92ade5beba5768U, 0xbe22fb893e34b957U,
  0x3d889632bf185683U, 0x3cbf66a1be6fb179U, 0xbee55d10bf00f2adU, 0xbeddc5b93dbe8c3cU,
  0xbe871451bf180458U, 0x3d561913bd808c71U, 0xbf243e55bee4984fU, 0xbe9af6883d04d9a6U,
  0xbdad7612bee1d5cdU, 0x3cdb78d0be60b5d8U, 0xbe7549d2be2726e0U, 0xbe4c57f4bd797fe0U,
  0xbe95f584bf40dce1U, 0xbda9394fbe9757e3U, 0xbf02f03abeb31c97U, 0xbeade8353d0934fbU,
  0xbcfdec51beff7961U, 0x3e8f4701bd90927dU, 0xbe964820bea9ef78U, 0xbebc5b583d5ced77U,
  0xbe6ec76bbf049af1U, 0x3dfd11b8bc7823d2U, 0xbe94cacbbe51ae9fU, 0xbdbc512c3e29f3adU,
  0x3d275377be688fafU, 0x3e3f4048bd0f4356U, 0x3dd3bd9dbe1ed91eU, 0x3dea64ad3e70d15eU,
  0xbe21d55abe2c0494U, 0x3dcef431bde15202U, 0x3c7d99833c838407U, 0x3d89c7533e2c11f8U,
  0xbe43f2253e726c56U, 0x3d817dc73d87fa7bU, 0xbd2a62a63da97d5bU, 0xbe1429f5bd1a07baU,
  0xbea3adf9bcde9e9eU, 0x3c308eadbe6b724aU, 0xbe544c36be1d6535U, 0xbe52634fbe18e1c7U,
  0xbe19536c3ddade71U, 0xbe196e60bdeb8f57U, 0xbeccfe81be420558U, 0xbe71a5d1bee0b16dU,
  0x3e486caa3d3db244U, 0x3dbc6401be6cc8d2U, 0xbe12ac94bea0fe01U, 0xbe955fbcbeb9e86eU,
  0x3e5c9d103d68fff1U, 0x3daffb36bd587d91U, 0xbd57dd20bddd1dccU, 0xbe7f806bbe4fd9f9U,
  0x3eaa2c0dbb85712eU, 0x3e7c0d7f3e2c6b04U, 0xbd0b06e6bdf0bb8cU, 0x3d80629bbdafc8eeU,
  0x3e08a9b93e00f72eU, 0x3e07e350bd8ab605U, 0xbcddd77a3ddc0d56U, 0xbdec284f3e52e3a9U,
  0xbe5d9c243e3c9b57U, 0xbd122212bd873db8U, 0x3dcf6fdabd3052efU, 0xbc0792b33d028d3fU,
  0xbe833b413c443b8fU, 0x3e1086063d9e1f48U, 0x3e34181dbe23f454U, 0x3bb7a9b6be4b0265U,
  0xbf038227bdb3f192U, 0x3e7065d73d44b4dcU, 0x3e219c04be8c3d4dU, 0x3db8c004bf2abf36U,
  0xbedf1e82be0f532cU, 0x3eb9196d3ca4b3c7U, 0xbd291614bf126676U, 0x3d0074bdbf8924b7U,
  0xbda8059fbdf26878U, 0x3ebcdad03d2eb244U, 0x3daeebaebea4ca15U, 0xbdd1c2cebf55c980U,
  0x3aeab7c3bd62aa44U, 0x3f2c93d9be54d473U, 0xbd4e3424beb9e016U, 0xbdad0312befe63f5U,
  0x3c7d8386be34b102U, 0x3e8a79d5be5a9951U, 0xbdcc2211be15da73U, 0x3d1bc735be8b1643U,
  0x3ebf8d243aef5dcdU, 0x3d4b98c9bd981dadU, 0x3d0d28fbbe1b65cfU, 0xbd352a213e018676U,
  0xbeefa0e9be8482f9U, 0xbcc0d4e03d9d583eU, 0x3cfedd12be0b708eU, 0x3d32f537bb8dc15dU,
  0xbe19e0cd3ddeb111U, 0x3a90a97c3e259a64U, 0x3e9838a9bda0dbc3U, 0x3e6076d2be60175eU,
  0x3c4265673ebd0bbbU, 0x3d0648db3e99de4dU, 0x3e7127813d076a93U, 0x3e8db8ebbf1cd893U,
  0xbe7aeda1bd121ab8U, 0x3d78ee24bd483db0U, 0x3c8460fabeb9ebe5U, 0x3dcc5e22bea5554fU,
  0x3d8d34f33e29c09fU, 0x3e7558693e8e4922U, 0x3e75e1f8be4ccd24U, 0x3e823dd6bf13486bU,
  0xbe299c073d2f4812U, 0x3f07a36fbccd9406U, 0x3d15c349beda5094U, 0x3e29e1ecbed93e05U,
  0xbd9b1117bed13e59U, 0x3dc1ce9ebeeaffb6U, 0xbe7733f3be3c7f2bU, 0xbe97a5ec3d569a18U,
  0xbe2d088c3e1e619dU, 0x3e9f542d3e090ff2U, 0x3de906f13dc9cce5U, 0x3e6c886b3e4c1ba3U,
  0x3d41f8353e35b73cU, 0xbdda838c3e3a69fbU, 0x3dc03552be66c901U, 0x3deec498be1d8d0aU,
  0x3e3a61253dc796e6U, 0xbe253b533e09a720U, 0x3e440933bd7a9155U, 0x3e744cf0becd76e2U,
  0x3e60b1923e5ab94dU, 0xbe80be593e53f8f8U, 0x3e715dd6bc0fbf8dU, 0x3e31311a3db02c7dU,
  0xbde157de3c97553eU, 0xbe3d39043e47fd46U, 0x3e049da7be28a470U, 0x3dd89da23e9bc59dU,
  0x3eb5ee763e7b38c2U, 0x3e16c22f3e5a3cbbU, 0x3e94f96b3e1fb5c6U, 0x3e85863bbe93eca1U,
  0x3defe5043ce31151U, 0x3ec031de3e0fdbe5U, 0xbbb0e49ebdac4073U, 0x3d213eb6bd224bf4U,
  0xbdf4f9bcbdd31737U, 0xbd7e4e53be8b10c2U, 0xbead7712bc851ce6U, 0xbe4d8811bae1e66eU,
  0x3e82d963bc0873f8U, 0xbb2b5d07be009828U, 0xbe8549bebc65bc15U, 0xbd97ff2b3e3f5ceaU,
  0x3e280cfa3e35442bU, 0x3e2cdefbbde1433bU, 0xbdf1abdcbd3f0d9bU, 0x3db7d6c33dcd44e2U,
  0x3e2736b73ddef3d7U, 0xbe48a025bce953d0U, 0x3d88acb8bdf6a5feU, 0xbb8ef7b8bf0bc60bU,
  0x3d8e5beebe06127fU, 0xbe5a8b20bead0734U, 0xbdfa97683ea0207fU, 0xbe2e20813e22a7f7U,
  0x3df501a83d2a91b7U, 0xbdf352643dac63c8U, 0xbcef38b63e72a123U, 0x3de3435e3ed1addbU,
  0x3e5607993e364b03U, 0x3d83bceabd31a580U, 0xbd5dedde3dbbd717U, 0x3d567ed8be5c5818U,
  0x3e3a01e33d9d47c9U, 0x3eaa07c53e14bc38U, 0x3bed88a33e66f0a8U, 0xbd2eca423d771785U,
  0xbd59fa0abcc32979U, 0xbd188d11be51209cU, 0xbd9da2a23d34eddbU, 0xbe430704bd83599dU,
  0x3e8813bc3df787f4U, 0x3ca072e0bdff40d2U, 0xbe1620d0bec644d2U, 0xbe5da45d3e271110U,
  0x3da0df2bbe223e59U, 0x3dc4023abd6ca2d0U, 0xbb88f86a3e61b4b5U, 0xbe3c545f3e0040d4U,
  0x3e4ebb45be115321U, 0x3ebc6e16bd5233b2U, 0xbd6988a0bd7dff73U, 0xbd74aa3b3ea4ddafU,
  0xbdc1ec71be82c336U, 0x3e2f21d8be07fc40U, 0xbe2ccc28bee36357U, 0xbe0491a3bed9c43cU,
  0xbd9040b83c07f715U, 0x3e3f2626bd720d6bU, 0x3c1a44f4bf59b464U, 0xbe4392cfbf8b1230U,
  0x3d28d312bdbb613bU, 0x3db1ce1cbd69984bU, 0x3bee5c7bbe417ec2U, 0xbe15a05cbedf61e3U,
  0xbe2b84c63d0d41f0U, 0x3c7491633d3de751U, 0x3e00dcd0bdb31971U, 0xbd1d74633e28d046U,
  0xbc9fff05be871d77U, 0x3dbc8896be2dc0f8U, 0xbcf3d5a13e38340bU, 0xbda325203e33bb05U,
  0xb9d7cdacbf19c936U, 0x3e343bf0bec7a36cU, 0xbebc701bbe203684U, 0xbf138a103e718c3fU,
  0xbe5f12a7be3a727bU, 0x3eb250e1bea34ef9U, 0xbeae3b50bec45934U, 0xbe82492a3e090d89U,
  0xbe08fb9a3df4dea8U, 0x3e75569dbdea5fb0U, 0xbcac21d8bf1c47d6U, 0xbdba9c60bee1876bU,
  0x3d4276d9bdbe325dU, 0x3dfd346ebdc28237U, 0x3ccc8098bf97bb64U, 0xbbab8bccbf1bf8c3U,
  0x3ce4a6c0bde0613aU, 0xbe028b85bda87b7dU, 0xbca7517bbe7931e8U, 0xbe90228dbfb50ff2U,
  0x3d5ad7203d1cf4dcU, 0xbeb8cc79be42556bU, 0x3d0673a83e20f99aU, 0xbe05fb0ebefba20bU,
  0x3e27a3a33caed826U, 0x3e70f1173ccf006dU, 0x3cdcc8a93e0de6c2U, 0xbdfed58b3c946fc2U,
  0xbc9dfde4bcfca77bU, 0x3d2fb41bbe6e6219U, 0xbd5112c13e410097U, 0x3e50e65f3e757115U,
  0xbe2e145c3e65d6f2U, 0xbe8c9d543e063330U, 0x3e949c0f3e78624aU, 0x3e97f09bbe5401f0U,
  0xbd18e8dc3a9fbe3cU, 0xbe4e5657be09bcb8U, 0xbe6711cabe88f636U, 0xbe805b89be2ecb23U,
  0xbe76f0e5bcba5552U, 0xbd6ed5bfbd168243U, 0x3e15c54c3cbf4271U, 0x3ce268aabd5bacecU,
  0xbe2354fe3d566bb5U, 0xbdfaf1eebe26bafdU, 0xbd8039463d68f672U, 0xbd9b859fbd8967c4U,
  0xbe400d9abd102bf0U, 0xbd57a4d03cd87d6bU, 0xbdec6d34bd32f4c3U, 0xbbaaa028bd64dbcaU,
  0x3df2c36f3e2fe612U, 0x3cc6a2f63db7400aU, 0x3e352ea03e5be37eU, 0xbd216b03bd4af3e2U,
  0x3e6bdbcd3deaf142U, 0xbe0386a53ba891c9U, 0x3d6feeb73e02917aU, 0x3dfc630cbc6d8bfbU,
  0x3d9d34cabd8a2452U, 0xbd82c8623e1a34e9U, 0x3e0506a13d981ae4U, 0x3e3598b83c97e231U,
  0xbd236e26bd79c4b2U, 0xbe8d1f3dbe90d6adU, 0xbe7a3c55be6d2f54U, 0xbea65f1fbdf3edc3U,
  0xbf2778bebeb70105U, 0xbd9e9089bddf0814U, 0xbd8aa3d73d4808b8U, 0x3c7570babb79fd3bU,
  0xbef8fe733d184bf8U, 0x3df023a7bc2b87bdU, 0x3d117731bda8640eU, 0x3c46fe90bd9b71b9U,
  0xbb58e752bc70f4c8U, 0x3dca121fbcc7e770U, 0xbd4ba4553b61366bU, 0xbdcf713bbe222bedU,
  0x3e7f21ae3cc65a45U, 0x3e893f843cc00edbU, 0xbd60d06cbdf968f6U, 0x3dc430aa3d837fe1U,
  0x3ef87836bd84bba8U, 0x3e9da1883e028992U, 0x3d6060ca3d48c9f7U, 0x3d8f7d313c272487U,
  0x3f0de351bce83a00U, 0x3eccaa28bc81e8c1U, 0x3dd41c613d0e1cfdU, 0x3d1f99173e300771U,
  0x3e71ca5e3c5fd681U, 0x3eb57b1b3e55082aU, 0x3db4bb21bd1fc3b8U, 0x3e37f029bd75d27dU,
  0xbe9b72b5beae78a6U, 0xbe1b98b13d282f3eU, 0x3d1f4b1bbe951354U, 0xbc72805abe82419bU,
  0xbef7c55a3e054234U, 0xbc9161d23d9258e7U, 0x3d94b93bbf0def84U, 0x3d71b241bdd23374U,
  0xbed6c7283ca9b6c5U, 0xbdc115813e1dd6f3U, 0x3e11042ebeb73879U, 0x3e3721debe4ca8b1U,
  0xbe5388c23e3d42b7U, 0x3d84b8ad3e21edf8U, 0x3dd314b8be426c70U, 0x3e40e8c2bea3b01bU,
  0xbc9c0519bcfe2e2aU, 0x3d065c6dbe40963bU, 0xbe94ec553e118e83U, 0xbd9531753e8185eeU,
  0x3e0ffd2338627892U, 0xbd9e3acebdbd7722U, 0xbe85639e3e6c83f5U, 0xbcc21f3b3eca027bU,
  0x3ec6041cbd6cc19bU, 0x3e977e5bbdbf3eabU, 0xbd37a2a23f0dc107U, 0xbddd912c3f3391acU,
  0x3d9641fb3d998b69U, 0x3f34ff6d3e7c44e1U, 0x3e4303033eb53f20U, 0x3e0480d43e92341cU,
  0x3e6adf183d818b55U, 0x3aac84aabd99c7f0U, 0xbe0bef0bbe0ced35U, 0xba643556be30065dU,
  0xbebeccd93e6d3631U, 0xbdc907353ebb0367U, 0x3e111a7fbef7e486U, 0x3e6419d7be89ba5dU,
  0xbe2a2dcb3e351381U, 0xbe4e5edd3e36fcbcU, 0x3e3260c1bea71fb2U, 0x3e6c7d5639cb72f8U,
  0xbe295c843c323d4bU, 0xbe4f8b0c3d569a31U, 0x3d7a04dfbd3faf77U, 0x3e2424603cea8548U,
  0xbbe15e94bddc4ddaU, 0xbecf4055be2ccd7dU, 0xbe1a6d9c3e14cbbdU, 0xbe12f74f3f0084f1U,
  0xbeb4b277be4ea617U, 0xbf271ec0be2f7773U, 0xbe669ae13eaba47eU, 0xbea152513ef0882cU,
  0xbe6bfb9ebeae570cU, 0xbf2c107dbf259eb9U, 0xbed51f533f54fb9eU, 0xbede0c493eeea93bU,
  0x3d50e3c5bdbb708eU, 0x3e1e3c81bdfb9969U, 0xbce16f4d3f2eeb1aU, 0xbe2e39e63f3178dcU,
  0xbe18373b3c978e41U, 0xbe3d4c28bd1d8418U, 0x3d889b2dbe2ad3eeU, 0xbdf4fa6abe5b3640U,
  0x3e7ccda13dbd8e23U, 0xbdfae57abd2116c0U, 0xbe0027623d81d13dU, 0x3c683ecc3e198705U,
  0xbe6cae1c3dd8f21cU, 0xbed9d8c63def81d6U, 0x3d13206dbd836bf0U, 0x3e1385593ea6a20cU,
  0x3c3cb6e13e14d31eU, 0xbf103ccf3ac23447U, 0x3da4f7c83db9de3dU, 0x3e5a1e253e392d1cU,
  0xbcc47c8ebe179804U, 0xbeef99f4be710bb0U, 0xbd7ad6f33e57267bU, 0xbe498a183eed291dU,
  0xbf19b419be8e536aU, 0xbf46a11abdfcc768U, 0xbe7777403e83d9b1U, 0xbe87afd23e9e510cU,
  0xbecc5a81bebdb7f3U, 0xbf39337bbe40390cU, 0xbe6a0f243ebf03aeU, 0xbe1bd3833ccf008dU,
  0xbf039f0dbe58c468U, 0xbddeae92bda12a5aU, 0xbeb216703eda08bfU, 0xbec53bbb3e843180U,
  0x3e07de9cbe8ec883U, 0xbe427e54be2923d5U, 0xbdc9ee673debf3eaU, 0xbe8855bcbdb24277U,
  0x3d33b289be4ce0c0U, 0xbd27ca833ca5ca8cU, 0xbe0eb4233ed9d9d9U, 0xbe6af3053e9bca4eU,
  0xbc8572cbbbfb8140U, 0xbee778febdd9059fU, 0xbe2b6c9e3ec1e9dbU, 0xbdcd54ca3ee1c9bbU,
  0x3b6ee21dbc0cb5b6U, 0xbecc1e36bd24668aU, 0x3d1bf1e33e7e7752U, 0xbd41e59d3ebd031dU,
  0xbe804034bc866b86U, 0xbd8b2799bdc3ad18U, 0xbdf2903c3e57a553U, 0xbcaebea5bca0d899U,
  0xbe258b9d3d827e37U, 0xbe65a1f23da88738U, 0x3da412cb3d68a5a8U, 0xbe0bd9c9bd90172bU,
  0xbd84db8dbe08844bU, 0xbdc4f942bdbe4516U, 0xbb46e388bcd20db5U, 0xbc79c107be97f0efU,
  0xbe2db2473cff0579U, 0xbed865eb3de4b912U, 0xba08c0ddbd3286c7U, 0xbdad1869be3d34a5U,
  0x3b571af4bd9c3d00U, 0xbe5864cb3d4d3164U, 0x3d8d50febdd87020U, 0xbdbc1b4dbdd5c839U,
  0xbcb6481fbd7d09c9U, 0xbdce5d9ebd2ed915U, 0xbcf616bf3ea8b989U, 0xbdadf4d53e6595e1U,
  0x3dcc9fc93d85fdbbU, 0x3c023284be035441U, 0xbe0dfcf33ea6087aU, 0x3da247cc3ea2c8dcU,
  0x3d11e4ab3e1210e3U, 0x3d55cf2a3dfbf8a6U, 0x3db6d50b3e7d6c3aU, 0xbcfc02343e172160U,
  0xbd48d7d8bd2ac32cU, 0x3bf88565bd10fe0dU, 0xbd3f5d843c822a57U, 0xbd84f6b4bd7f5e69U,
  0x3ca285dd3d834574U, 0x3e13f732bc3fc152U, 0xbcbd81bd3b8e2d98U, 0x3dc4c0fbbe363047U,
  0x3c8ed033bc5342e3U, 0x3dc00131bb0165b2U, 0xbc2477d2be581847U, 0x3e56baa1be451bf4U,
  0x3d255f543d8c5d5dU, 0xbd197c1a3db755b4U, 0x3e9000acbe57f531U, 0x3d7e5e54be93f2a5U,
  0x3bf1daaf3e20565bU, 0x3c84320bbcd90f1eU, 0x3e9affaa3edbd01cU, 0x3e6890d1be4fe799U,
  0xbe4c96bf3c810966U, 0xbea730efbe47ffe4U, 0xbe042e843ec7e403U, 0xbe235a19be4d7083U,
  0xbcdc0de3be218fb8U, 0xbe819fb63d099b55U, 0x3daf53f43f16f729U, 0xbe01e3c23e963d5fU,
  0x3e08dee73d49f563U, 0x3dcf1d4dbb44e568U, 0x3e35cb2a3e93fc6fU, 0x3d22757c3f0ba8f2U,
  0x3e1ae825bd15f7bdU, 0x3ebebe123d959f4fU, 0x3dc74c1a3dd50df0U, 0x3ceadb9d3e230d77U,
  0x3d336f073dbbe2b1U, 0x3f22cfd2bc2fb31dU, 0x3d17080fbcb15cc3U, 0x3d6fe3edbe20b71bU,
  0xbb3e9f8cbe07fa79U, 0x3ed0dbff3d3b0351U, 0xbd1d94b7beea932eU, 0x3dfdfc7dbec893a6U,
  0x3e18b4fb3e55496cU, 0xbe8566d73ed5eaeeU, 0x3e5cf516be12f383U, 0x3e996e69be849257U,
  0x3c7a9ccdbf005a99U, 0x3d899fd2bd6baa67U, 0xbe57b4c2be975c28U, 0xbe69b95a3bf889dcU,
  0xbdffad8d3ef71333U, 0x3e52b82d3d143991U, 0x3dd723783e0c5afeU, 0x3e1387a53cc39e42U,
  0x3ddeda933ee60195U, 0xbdc3ce433cb23ba6U, 0x3e6a9ba43e31e1b5U, 0x3ddce36e3ceaa579U,
  0x3f4d06973e69d003U, 0xbe63c639bddb6b76U, 0x3d3773b1bc6eafb3U, 0x3dc0ab4c3cd4006bU,
  0x3f452c623ea2a521U, 0xbc8cb6f03ca8c998U, 0x3ddd6f723dc57b00U, 0x3c762066be2a6ea9U,
  0x3f591c0e3ef795c7U, 0x3d2c5932bd9dd2afU, 0x3d5e370abcdad99fU, 0xbdd47f30bdf09496U,
  0x3f20c3623f0bb321U, 0x3e3b2bc23da3aec8U, 0x3e1e2c483e45db0cU, 0x3e085be13df6c0a8U,
  0x3f091bdf3f074588U, 0xbd5a6f543e64e986U, 0x3e6796f03e6c6d41U, 0x3dad8a293d7dbfacU,
  0xbe2c57febe8dc899U, 0x3e1bb9403e09e878U, 0x3e3d95c03dc28bdbU, 0x3e1c80c33d5597ddU,
  0x3c3b8234bc95d684U, 0xbb9af99a3df1de4dU, 0x3e03b3f33d2316c7U, 0x3ce07fec3d879605U,
  0xbdddd770bcca53c7U, 0xbcc620a8bd721dcaU, 0x3d06bae8be8d74fcU, 0xbd84db4bbe9cc3abU,
  0x3d4aa706be01e21fU, 0x3ddf0284be2e98e5U, 0xbddb6438be94abf0U, 0xbe436301bed1beeaU,
  0x3d841cbd3d0f61c3U, 0x3eb377e4be47c5efU, 0xbddf749ebec0d342U, 0xbe019c28bed127ecU,
  0x3d963f443c3aa5c6U, 0x3ea210c5bdd30798U, 0x3c515b6d3ca0aedeU, 0xbd4975acbe5da19fU,
  0xbd0437123e1708fdU, 0x3da488183dc0ce2fU, 0x3dca7fcebd98e909U, 0xbcffe6603d9d3d2aU,
  0xbd81b4f83dd906c4U, 0xbdd2d38f3cbda640U, 0x3d77b9a4bd6f154cU, 0x3d625ee83e28d325U,
  0xbe04a2813e37186aU, 0x3e1f19b93dd690e9U, 0x3e8075173d2ba78cU, 0x3e9653f63ac91a1bU,
  0x3cdfe263bd15f51bU, 0x3d07222bbda9bf5bU, 0xbdde6beabefca0c2U, 0xbcc3479cbe8a0837U,
  0x3ed6210dbcc864cdU, 0x3e22f76a3de451adU, 0x3d2fd0c9be9a47f8U, 0x3d7492d5beb53a72U,
  0x3e5da0b2be0d1736U, 0x3e8c560ebe0f9c82U, 0xbdbc6dfebef5b244U, 0xbc9fa6f5bf2c3d4aU,
  0x3e1cf964bd971126U, 0x3f131537be4f3e1bU, 0xbe644fcfbecddaeeU, 0xbe40a621be7e9cd6U,
  0x3cdb4e48be4c0186U, 0x3eb9ce11bee2220eU, 0xbe966657bdd0a8abU, 0xbea159b63e9ba4b0U,
  0x3e5ff532bc40ecbeU, 0x3de3a3b5be057a90U, 0xbe3d5e433e0f3144U, 0xbe1e3e4d3f00da15U,
  0x3bdb9e4fbe221b4dU, 0xbe88dea0bf0d4620U, 0xbe7ff229bdc2404dU, 0xbe7603f53ec8ae1cU,
  0xbd3986cabc4b1259U, 0xbdaa925a3e08374dU, 0xbee533f1bf66a4d4U, 0x3b384a3cbc200a57U,
  0xbe2620133c0fffd0U, 0x3e8f6c023c4f6539U, 0x3d3e3975bdb22ec3U, 0x3e063ff7bee42c3eU,
  0x3d2cb5603e212532U, 0x3ea214d93cd52157U, 0x3e13b77fbeca8c0fU, 0x3e3352afbf07941bU,
  0x3d5be59c3d117e62U, 0x3e921e1d3d715613U, 0xbcdc4e1fbe11e230U, 0xbda635dfbf0cbe03U,
  0xbd60f3d0be858bc9U, 0x3e8cd558bde37f2dU, 0xbdf9e7ed3d6fa62fU, 0xbe8ee47cbeb63873U,
  0xbeb364b8bea352d2U, 0xbe35f2c3be97320cU, 0xbee5ae493e3e16e4U, 0xbeb84df23f0b4c0aU,
  0xbdabe739be1feabbU, 0xbec17a9ebd958e84U, 0xbe9e770d3ea848ceU, 0xbe89e63d3f20c676U,
  0xbee310d9bda07df0U, 0xbebd2c473b8d2ae9U, 0x3c65dea23e5339edU, 0xbdb51f4a3e5b3b96U,
  0x3c9f9e1bbdec1886U, 0xbd9cefbbbeab8baaU, 0xbf6f9d16bf71f1eeU, 0xbea1c4423cae0284U,
  0xbe8285f93e3db623U, 0x3d2bfcd73e626d93U, 0x3ea40c2bbed53829U, 0x3e9c718cbe95998eU,
  0xbe68c5d93e07571eU, 0x3e447a723e329335U, 0x3dbd4567bf138b11U, 0x3da04d29bf2342b8U,
  0x3dd3e21a3e5350d6U, 0x3deda2f53e116cc0U, 0x3d20e2ccbeb4428bU, 0x3dc414d0bf27147aU,
  0x3e0aeb68be169be8U, 0x3e75a70dbe361e92U, 0xbe526e583d8b01aaU, 0xbdf7e43b3b10047aU,
  0xbf0467e9be1cac5cU, 0xbeb5342abe5dd217U, 0xbd61a6243ea3f661U, 0xbe5718263eaf7cd5U,
  0xbe34f929bdd843d0U, 0xbe7032de3e2c0255U, 0x3dfa661e3e20af74U, 0x3d6765e63e6381c6U,
  0x3b754a953d71fd47U, 0xbe44496a3ea0b134U, 0x3ec7cf37be3d5e5dU, 0x3db68b33bdc7ed33U,
  0xbe571829beff3877U, 0x3db3d6f13e2337a1U, 0x3eb748a93eb30a48U, 0x3dc34c8f3dee70c3U,
  0x3c5deb4b3ea544fdU, 0xbdd9beb23d84955aU, 0x3ea36b98bf05c1b6U, 0x3d8f85d9bf2e939eU,
  0xbdd511033e856654U, 0xbe8e02343e8e5a34U, 0x3e0d7c59bec00828U, 0x3e6d268ebf31d63eU,
  0x3e1367c13e917ba0U, 0x3ca6a9c83e7bc28fU, 0x3e902440bebe1c84U, 0x3e581b17be88dfb3U,
  0xbe8c95593d5e2e27U, 0xbe864ff33dab3f51U, 0x3cb78ee23e508672U, 0xbd8c5f68be69bacbU,
  0x3df334d43d8b8b17U, 0xbe88a0e83e0443acU, 0xbd4c85bb3e333177U, 0x3e1f781a3e67c90dU,
  0xbd94b0dc3d265b0fU, 0xbeb7515dbcfd824aU, 0xbcbd3b783d5b581eU, 0x3c851c4dbcc6126fU,
  0x3e40ce4a3ce5f49cU, 0xbce4472c3d32387eU, 0x3d1c459fbe0a7168U, 0x3e0c8e2cbdbcbeb5U,
  0x3eb470f73e948caaU, 0x3dcacd833e39faeeU, 0xbec5278cbea51a15U, 0x3ea1fa4bbe048a90U,
  0x3b9efa813e171edcU, 0xbe0599183d0b3115U, 0xbda786d3bf333358U, 0x3de17c5dbe6d2e34U,
  0xbe71aab83e314ef4U, 0xbf39142d3e36005cU, 0x3ddf7c35be75faa2U, 0x3dabab82bf543f30U,
  0x3e1afbdc3e1f1af7U, 0xbf2081153e4f13aaU, 0x3e8c15293d368547U, 0x3eb7bf573d86bf34U,
  0x3e7da66e3e8f3e24U, 0xbe7f24143daf38f1U, 0x3d3e369d3e179d7bU, 0x3e2015a73e409060U,
  0x3d9c9a743de5abf3U, 0x3e32879cbcb4e734U, 0x3d42676fbd6e610dU, 0x3b7a9128bd240616U,
  0xbd90aa9cbd6b2659U, 0xbd24fbd0be0fcaebU, 0xbdc19c573e0f1253U, 0xbd9605cbbea45023U,
  0x3e503b37ba48a4b8U, 0x3e2d86d2bd960ee3U, 0xbd3c4ff93daae319U, 0x3da4a80d3c88bb6dU,
  0x3cdcb8fabe8bb913U, 0xbcee2e0fbe50d5a4U, 0xbe06095d3c941635U, 0xbe53462bbd034a65U,
  0xbeb5c970be6ba86eU, 0xbdc7f5a8bdb68b49U, 0xbf37267abf3d071eU, 0xbf2f8919be09c5ebU,
  0x3d4603a73d2e3f2fU, 0xbf398a793d50e1d2U, 0x3db228a0bfc169a9U, 0xbd5f0145be25da93U,
  0x3e1c85723d7dddcbU, 0xbfe82fb1be13223eU, 0x3dfc1f9abf7bf775U, 0x3d9076e0bf30834aU,
  0x3e4503db3cf82f1bU, 0xbfaae2e9be20a3d6U, 0x3d99c71e3eac224bU, 0xbbb1c3413f041293U,
  0x3de7ac7abd9fd3a0U, 0xbe372a3cbd659832U, 0x3d3ae2893e6edf45U, 0x3e0c47733e18b67aU,
  0x3e204ea33df760efU, 0xbce25ec33e242056U, 0x3e2be6d4bf0acb38U, 0x3e3172bbbda49f14U,
  0xbe7c5474be4c435bU, 0x3e1175cbbf191272U, 0xbeee9fcdbf2858a5U, 0xbeebb9d93e0838aeU,
  0xbd945a283c8051c7U, 0x3c12d408bc7703d2U, 0xbe9d8b573cfa3b57U, 0xbe90d905bdbc06f8U,
  0x3d24cde5be193badU, 0xbc73a050bf372908U, 0xbf2ab81cbf0f1e8cU, 0xbf61798bbdfd5f84U,
  0x3dfa18cabeab2fedU, 0xbe8bf8a2bf856029U, 0xbf76d769bf5129f8U, 0xbf74c73ebe8a31aeU,
  0x3d6eab61bf0a042fU, 0xbdadd93abc8a47fcU, 0xbe2c4c98be9738d2U, 0xbd2f9149be2630f5U,
  0x3d1e6749be6af4b9U, 0xbdb7afea3d59403cU, 0xbe39b7ca3b63a57fU, 0x3cc4e73dbe032bdbU,
  0xbe2d4bfbbe3a4dffU, 0xbe84ca2cbea3dfa6U, 0xbfbcf830bee829e4U, 0xbe6a114bbe942001U,
  0xbe156d44bcdf64a9U, 0x3c8fae433d81fefbU, 0xbdb3d98abedee070U, 0x3cfe1da0be6c3536U,
  0x3d8b91d5bc86ceb6U, 0xbe1142ed3e8979d8U, 0xbf4617c43e9954feU, 0x3df5aa953d591e34U,
  0x3cfdc8c93e9c8ea1U, 0xbd3094c2bcbabb70U, 0x3d1c8acc3e8f27c5U, 0x3d9f66e0bd85defeU,
  0xbe0067a03ebcabb6U, 0x3dd332823e534d58U, 0x3d8275c33e0e1cf2U, 0x3c57c3ac3b10df40U,
  0x3e228c543eb54990U, 0xbd8768a63dec07dcU, 0x3c7ada923e6f43b0U, 0x3de9e2153c197c57U,
  0x3ed95bc63dd3a778U, 0x3ddc0f293cacc8b3U, 0x3e1e3faf3e33ea66U, 0xbc68cb6b3e7a918aU,
  0x3e98d48b3c474fe3U, 0x3db6ed70bdd08196U, 0xbcdb94823dd546d3U, 0x3d183f1d3d121f9eU,
  0xbe7cad43be001c7eU, 0x3de89754bdd724ccU, 0xbc6d5163bd09c0f5U, 0xbd24edd13e20097eU,
  0xbf0df122be89e768U, 0x3e223750be1623ffU, 0xbe5bfbddbe2c518eU, 0xbce04ac8bd156599U,
  0xbe9a7994bed4c2a4U, 0xbe5cfa6bbefcdd96U, 0xbec00512bc16f490U, 0xbe0711b9bd228c39U,
  0x3e4705e13e2b900dU, 0x3dac909ebcf5ed35U, 0x3e9adc3f3dfd4510U, 0x3e188da23dca95cdU,
  0xbe7705103e32a5a5U, 0xbd802f58ba103b7aU, 0x3d9dff713dadfe60U, 0xbca5d05a3d7a6a50U,
  0xbde0d4af3e010685U, 0xbee905f93e22e31dU, 0x3e21cd933ea7d5ceU, 0x3c9da5c43eca1dd5U,
  0xbc02106b3e772f2fU, 0xbf0fba6a3db7f76bU, 0x3de647923ebab17eU, 0x3d2182dc3ecf3102U,
  0x3d66ad9a3e4d84ddU, 0xbecbd3b63df5a598U, 0x3d870e173e90f0b0U, 0x3e226eb83ecfa8f7U,
  0x3e4bc1263e1bd5b2U, 0xbc69b4283dbcfd94U, 0x3e476dc03d60a726U, 0x3e6a56333df09866U,
  0x3d536b253dee5306U, 0x3e892ba43c68748bU, 0xbc6ac29abb8dd603U, 0x3d2b9972bdf0e77eU,
  0x3c927e77bda7e9aaU, 0x3e03dba4be9a3e6eU, 0xbe134afdbdb5ad77U, 0x3d8866e0bd933b70U,
  0x3d978183bde82ea4U, 0xbdd48559bd0da712U, 0x3d2be0343e8a89d4U, 0x3cd539c53dcf19bfU,
  0xbe42118e37d24758U, 0xbeb7cb1e3cc8a97eU, 0xbb9d76653e93e636U, 0xbd889f793e1e0d55U,
  0xbcb943413db32bb0U, 0xbdbfb6b7bde83c31U, 0xbd3ea2eb3ee763a0U, 0x3c98c3ff3e963905U,
  0x3ea198f83de3637aU, 0xbd76f048be664c88U, 0x3d32ae883e841ad8U, 0xbe7a68513e8846e5U,
  0x3d5e0bb43caa3f7bU, 0x3e86549dbe5b498eU, 0xbc4cd0f4bda4a091U, 0xbe617d583ba468aaU,
  0x3e0056a63e2550b0U, 0x3e4b38c63c71005dU, 0x3e0e483fbde0b1fbU, 0xbd3052473e030dddU,
  0x3e8875143da7b9bcU, 0xbcc0a6623d799aacU, 0x3e0bc8acbd2c7385U, 0x3d3c55f7bd6a248aU,
  0xbce34d92bd1b3e9aU, 0xbdab6706be27c689U, 0xbde8c2c6be348151U, 0xbd9b4d6fbdd537b5U,
  0x3ea4287ebd18b4a0U, 0xbb9dab363c42ecddU, 0xbc6840033e4251f2U, 0x3e1f54f1be2abfdfU,
  0x3ce0bbb03c155336U, 0x3e7f15b8bcb1b764U, 0xbda32a67bdd2ba6eU, 0xbcb44e2f3e4c4851U,
  0x3ed66764be20d65aU, 0x3f5e1b70bdbbf148U, 0xbe3d58ab3ce36ebeU, 0xbe6572443e3b47a9U,
  0xbe11fbb1be66d45fU, 0x3f35a7e5be3a7999U, 0x3d3e8ff9be1d2adbU, 0xbeb840b23e35fc89U,
  0xbecc5983be840965U, 0x3e8aa911be5ab0fbU, 0xbea28bd0bee1bbc9U, 0xbeb75f7cbf1253f5U,
  0xbdea3f19bd1032b9U, 0xbdbad5403de33f04U, 0xbbfa22e83d81b3f1U, 0x3d2022c3be78ce66U,
  0x3d85fe8a3e238bb4U, 0xbdfd84d03db55e08U, 0x3e2d54123e212bbeU, 0x3e0ab8f33d94a750U,
  0x3dc12cb03c7be3e5U, 0xbee85f74be026c9aU, 0xbd7ccd9e3cace426U, 0xbd820094bdee5552U,
  0x3d5ee305be89a59bU, 0xbcef1af83b1d0bf6U, 0x3c611a633e408ec3U, 0xbdc7d1173e143782U,
  0x3bf1c142be42979bU, 0x3e8371d4be2b0b7aU, 0xbe8212acbf150642U, 0xbe58657d3d6a1339U,
  0xbc052e5fbe1c194eU, 0x3f05bf72beaab928U, 0xbe551b3f3e34cfccU, 0xbe8342433e0d9d2dU,
  0xbed9dce3be7c487eU, 0x3e83a4e1be839d3cU, 0xbeaa1f8dbe115717U, 0xbe828af2bd8d4231U,
  0xbcc6557e3d5498f3U, 0x3e08f66ebd8e3bfcU, 0x3df3925fbe8f814cU, 0x3d58eab4be9a1a5fU,
  0x3dfe7922bd626d63U, 0x3e91fff1bdfcf0c3U, 0x3d8c5dde3d0bb1a8U, 0x3cf6ba65beb27fbcU,
  0x3e2e947b3ccb22d6U, 0x3e9c28c43ce655bdU, 0x3cec36523ddd7ca5U, 0x3e0a036a3e8bcd8dU,
  0x3e06b450bcbf6e54U, 0xbd7bc9c0beac5c01U, 0x3c600a5bbe1eefc7U, 0x3c83a2763c251854U,
  0x3d83c393beb4bc7eU, 0xbe690817be814eabU, 0xbedd2e7bbefd39f8U, 0xbeb233b1bcdaee7bU,
  0xbda215c9be968183U, 0x3dcb2185be609cf2U, 0xbe15bcb6be01225eU, 0xbdf3b11fbdeff729U,
  0xbe914053be6cd70aU, 0x3d08e289bde3665cU, 0x39c58deabe851bb7U, 0xbdbe689bbe1451a8U,
  0xbe8ba1bcbe561ab7U, 0x3e64d0febc7a17c1U, 0xbe218f36bef6ed2dU, 0xbdb3bb6abf1557fdU,
  0xbe2d507bbc4d73c4U, 0x3e8156adbd99b562U, 0xbc4ca012bf19df30U, 0xbe1b5a8cbf14840cU,
  0xbe6df284be3dd02fU, 0x3d19cabbbe4b803fU, 0xbd9288bcbe931079U, 0xbe0778d5bed010bfU,
  0x3af7699ebd5f660aU, 0x3c17334ebe3dc109U, 0xbe4fe7d9beb8ec96U, 0xbe258077bc8e2df9U,
  0xbe3aa490be432e49U, 0x3cb72865beaf97b5U, 0xbeb99584bf02866eU, 0xbeab7dc1be1395cdU,
  0xbeb4605abf0e012eU, 0x3d4400223c83dd99U, 0x3dddd07b3ea9242bU, 0x3e8c22db3d11f6b1U,
  0x3cb9a2753e242bd2U, 0x3e73c42a3e8969cfU, 0x3e40fca73e442c62U, 0x3ea8f465be1cd91cU,
  0x3c1fc9b53d6bd192U, 0x3ee8bd703e5671d5U, 0xbdbaf9f9bedaf119U, 0x3d960aebbeddc18dU,
  0xbe5fbc57bd1e8e22U, 0x3e7fc5a03e51987aU, 0x3d533a7abf7e3904U, 0x3b84c480bf5ab9b1U,
  0xbe727269bd395fa5U, 0x3ccc42db3dcf542bU, 0xbd3ca02dbf1929efU, 0x3e1b1aadbf04754cU,
  0xbe052d93bd9ef4dcU, 0x3e14b9833dc9f4fbU, 0x3daa8119becd64d5U, 0x3d70ae9ebead86dfU,
  0xbe936dabbe82e689U, 0x3e566c98be290a86U, 0xbe276c76bea96064U, 0xbe122392be42b9f8U,
  0xbe64dd68beebf0b7U, 0x3d479391bec940adU, 0xbea1d3e6becb9227U, 0xbeede91cbe406b05U,
  0x3d9a3bcb3dabbb19U, 0x3e7b77c0bf1a4989U, 0xbe9a43e0bd86c79aU, 0xbf0929f43e85f5aaU,
  0x3e362ad6be7076d3U, 0x3e9124dcbcd5e33cU, 0xbe15497abebe8a2dU, 0x3d42c7833e34c03bU,
  0x3df1ee63bde3e620U, 0x3e7a2d45bdc72e57U, 0x3e08c2163ce95596U, 0xbd56cf593e6fd4bfU,
  0x3d908ae4bed152f0U, 0xbb4d806abdd78ecdU, 0xbdca339dbd48a09fU, 0xbbfb41c33de0cb60U,
  0xbeba0f32bdfa97b4U, 0x3e1069d6bd1b6798U, 0xbe07b8e43d3ad993U, 0xbe14479d3d8053aaU,
  0xbe686db73d4999ceU, 0x3e4ef8ecbe0f6d54U, 0x3dac45c4bca05482U, 0xbd9f7c2a3e1d7867U,
  0xbc0401083e07734bU, 0x3e13636ebdb624e0U, 0xbdf22a73bd9c2faaU, 0xbe30c0c1bc11ac31U,
  0x3d97db1ebdc50009U, 0x3e54340a3e1705d9U, 0x3e0b1cbc3d93a767U, 0x3e267a8d3e267c9eU,
  0x3e7d5c99bf1a3496U, 0x3e4de32bbf084a44U, 0xbf23af6abf2ebb46U, 0xbf1fd4973e84ecc7U,
  0xbe867692beab25ceU, 0x3d1b186ebc8a1026U, 0xbd927589be2ae407U, 0xbe250474bc521f8aU,
  0x3e911cf03d234ab9U, 0x3d2f749cbe000f9fU, 0xbd96c9cfbd1d3fd0U, 0xbdba06183d2f2c3bU,
  0x3dd34325bda26aeeU, 0x3da50ad53ccd5f8eU, 0x3d8010b0bda93930U, 0xbc2861543a5ca6bdU,
  0x3e31e936bda47bb2U, 0xbe0ae2ebb9bd37d9U, 0x3d9bd6063d76acaeU, 0x3deac3103c789f8dU,
  0x3e97639e3d0dcd57U, 0xbe2c7a1f3c10e39fU, 0xbd4413ae3d9d596cU, 0x3d9a45f23db5bf14U,
  0x3e432e913e5cfaf6U, 0xbd82f7e83dedc017U, 0x3dc625683df9145cU, 0x3d302e873da0f7eaU,
  0x3d86c0f5bd9282d3U, 0x3e57294f3c087c18U, 0xbdc54631bdfadb5aU, 0xbd2ca067bd541dbbU,
  0xbe11f30dbe44a634U, 0x3e036925be837500U, 0xbe496b54bde98e04U, 0xbdf049d03dfb33eaU,
  0x3e3e8d0e3cc060a0U, 0xbcc109f83cadf324U, 0xbe3da6003d1df42eU, 0xbe3ff03fbd3ec30fU,
  0x3dc23e52bd864b24U, 0x3e067b873d954a11U, 0x3cb88cdebe2720b5U, 0x3d1065c8be4acb1dU,
  0xbd91f20c3cac1331U, 0xbd123dc23cc62bf7U, 0xbdc3894fbde1cae8U, 0x3c7e751c3e30a28fU,
  0xbd99a595bcf4c9a6U, 0xbe60229fbdeaffdfU, 0x3df01c7dbcd38848U, 0x3d66b4853d6c3d85U,
  0x3df2d9013cd8331bU, 0xbe9d03603d00df8cU, 0x3ca9bba3bd130b2fU, 0x3dd68916bd7179d3U,
  0x3d3e96e63dc7471dU, 0xbed60b143e2f2376U, 0x3cc8f9843e880ba6U, 0xb950be383e2e98f0U,
  0xbcee07f53e421282U, 0xbdee6d313d92921bU, 0x3d90cd7e3da214bfU, 0x3dbc6d303d219f0fU,
  0xbd0714ad3d784f85U, 0x3e16e144be89e35aU, 0xbd4d3a5d3e697c49U, 0xbcc3f7c33e9111b4U,
  0x3de4ffa93cf7fecdU, 0xbd221dec3e039c9cU, 0x3dcfc6d4be38f959U, 0x3b0c5ab3bcb6298fU,
  0xbe3cc1743e417b90U, 0xbea0809e3dbc7917U, 0x3de11d6b3ca58f0aU, 0x3e074211beb000e2U,
  0xbedd1516be00290fU, 0xbf1620b13d987d1aU, 0x3d80adcfbbe2f90dU, 0x3d23de843d860014U,
  0xbe682e4c3e36f144U, 0xbefc839e3e7815a6U, 0x3d8e66053efc4e42U, 0x3d38831c3d228016U,
  0xbad73a57bd0688adU, 0xbca70049bd0ac63aU, 0xbdcd40a63e334139U, 0xbcf8ba54be510a89U,
  0x3e136d7d3ca77281U, 0x3e6347963d4173a5U, 0xbd03aa113dc97eb8U, 0x3baebf9cbe2576a4U,
  0x3dd735d73e453959U, 0xbdeae7d83e6f4303U, 0x3e5042ff3ccff759U, 0x3e8a51aebe2da9efU,
  0xbd19ce86be765c97U, 0xbcb77affbe1379b3U, 0xbe05f90ebe9eafccU, 0xbf10c6ee3ea2ca50U,
  0x3d6f0c85bdc01d2cU, 0xbe68ed5bbd178b32U, 0xbd853cf1be6c8653U, 0xbdb7fe2a3e9b428aU,
  0xbd4068293bd67cf0U, 0xbed249953ce5078fU, 0x3d87a4623d48f5d0U, 0x3caf1bff3e469e62U,
  0xbe338262bde4834bU, 0xbf147b0c3da37ea9U, 0xbe1989743d8abbfbU, 0x3db8999abe4e8d78U,
  0x3e16acb43cd9d681U, 0xbd1a5b4e3d210f55U, 0x3c6f2cf53eb63f14U, 0x3d7d89c73d1405fdU,
  0xbd12d097bb62ecc9U, 0x3e3ecdb4bdd4135aU, 0xbe05b811bcb390c7U, 0x3d22de12bd2ca008U,
  0x3d3cb7af3de96630U, 0xbf06d62dbde4f671U, 0xbcae6bcd3e6ed73cU, 0xbd5154543e38714fU,
  0xbd28b4263caf642dU, 0xbe111792bd77b47fU, 0xbcefe721bda37e1dU, 0xbe6b6c593e0abbd0U,
  0x3e19ef87befc2534U, 0x3dab355cbe81bb87U, 0xbe880d11bdcf79d6U, 0xbe15b0083e092e84U,
  0x3e27ec86bd6204eeU, 0x3e421d643c166bdfU, 0xbd635c4bbd3587c2U, 0xbd786866be3bdef2U,
  0x3ec28e83bd1b3524U, 0x3ecfd9c8bd31ba22U, 0xbdf306f6bea01fc1U, 0x3cb5478abebc4097U,
  0xb90f19c13d37bbbcU, 0x3e73ec8e3dc383e7U, 0x3c33301dbe91d73dU, 0x3db5b0b7bf34abd8U,
  0xbc78739dbd892f35U, 0xbe8e7a8ebe20a465U, 0xbcf044583d51650cU, 0xbdd42525bd6be42aU,
  0xbd9b9d17bde52a57U, 0xbee97bf1be066985U, 0xbdcd4b383eb42b69U, 0xbe0f456b3e0e6402U,
  0xbed96e65be52de8cU, 0xbef10d8dbde19b14U, 0xbea372ac3e9e1d5fU, 0xbe4c0d2e3de01758U,
  0xbe5a9b413ce225e7U, 0xbe6d57373d9d94bfU, 0x3cb3c2cd3c2a9907U, 0xbdf1f5563c04ec15U,
  0x3da78494be5cbcd6U, 0x3e0dfd47be55d6f3U, 0xbdfc8310bdb1214cU, 0xbe446b5f3e7db94cU,
  0xbdddf9493dbddb9bU, 0x3e43f93f3e2b6458U, 0x3e946785be4b0797U, 0x3e1fa103bda7a349U,
  0xbe6f10b43cdfe8f9U, 0x3c50f7163da1d1d6U, 0x3e8ad811be8edf27U, 0x3db9e20abf1f8ac3U,
  0xbe92248fbd56f4a5U, 0xbde49e6d3db4cc38U, 0x3e5d43a5be83a028U, 0x3acf69b3be9015e3U,
  0xbe198a32bd6a37b1U, 0xbe7bb6cc3decbfd9U, 0xbcb94debbc400a89U, 0xbc03b0cbbd91d5a4U,
  0xbd01f4a9bd42532eU, 0xbdcf84943c61f183U, 0x3c84dce33e0c5c00U, 0x3d578ba8be562ee2U,
  0xbd29b92fbd0ebb1eU, 0x3df05e0dbcb8296fU, 0xbdf9984cbe489948U, 0xbdef7d18bec90799U,
  0x3db7576e3d9c1c55U, 0x3db004bdbd87acb9U, 0x3d6b080bbee17019U, 0xbdfa2ef1bd148c14U,
  0x3e3dbbb3be2d14d8U, 0x3e2894a7bea8a9c7U, 0xbf42ea4dbe8db0f7U, 0xbe10d29a3dcb443fU,
  0xbc1768163dfcb806U, 0xbe8eb5ed3dca3e80U, 0xbe114798bf3d487eU, 0xbdb838753d1a4c69U,
  0xbe0ac1cfba55afbaU, 0xbf1d34673e29e68bU, 0x3e21f00dbe143a9dU, 0x3daf332cbea3051dU,
  0xbd85cc5abd65ac42U, 0xbf381d153e159d33U, 0x3dc24d753e1894dfU, 0x3e098599bd1cbc64U,
  0xbdb5253d3e6da1d0U, 0xbf21ff383e46f11eU, 0x3e03b1f33ea300b3U, 0x3e7629bb3e6334c7U,
  0xbdba97213da96bb6U, 0xbeb5b7e83d0961adU, 0x3c206f80be3704ceU, 0x3e103af1be1d2b0bU,
  0x3e7449ab3e0e0436U, 0x3e19f0dc3e324ab2U, 0x3e003059bec4f025U, 0x3e0fee00be340036U,
  0x3e6798623e36b048U, 0x3ebd8763be13320bU, 0x3d45eb12be95a19fU, 0xbd6b1de53e501b12U,
  0x3bd845b43e72cb42U, 0xbcae3587be252be3U, 0xbe4f5edabd824acaU, 0xbea2cd443d39d476U,
  0x3c9739fd3ea20345U, 0xbd4b6fcebe67be96U, 0xbf1854e2be78f99fU, 0xbf62afe13ccc4b3aU,
  0x3dcccd0ebda135dcU, 0xbdee0decbf35e4efU, 0xbf739aecbf781bb8U, 0xbf62fd97bb49cd7bU,
  0x3b6e6b70bf5fb6caU, 0x3da184b9bc68382cU, 0xbe4671b4be813d84U, 0xbdb44c893ba845e9U,
  0x3d954adabf853070U, 0xbd34c9743d73e741U, 0xbe3b99c8be1907bcU, 0xbd0109e73d8f5b1aU,
  0xbe213b3abee9921aU, 0x3d579bb6bd147bcaU, 0xbe8dcb2dbd574312U, 0x3c39a18f3e0a0229U,
  0x3cb9f67bbe24f280U, 0xbddd2d84bd8f9df8U, 0xbec7c23d3d866f7fU, 0xbd939b5e3d0d1b8bU,
  0xbc4eb4843df879c5U, 0xbd5a9700bf3d0c67U, 0xbe9f74bebf5956e3U, 0xbf77d55bbd2300c1U,
  0x3c0308e9be5cc49bU, 0xbc634c25bf52c2cdU, 0xbf3c4064bf4b7e93U, 0xbf612884bd308773U,
  0x3d744c10beefa777U, 0xbd0040fabe864f22U, 0xbdcb765cbe940ed7U, 0xbea2cc28bd0ca25cU,
  0xbe5b3a43be85f1dbU, 0x3db99dcbbd58b316U, 0xbdd0ff853dca2cefU, 0xbe50a973bdd3de24U,
  0x3edcbee03e053eb8U, 0x3d4bed69bcacd6b3U, 0x3d975ac13d4b8b7fU, 0xbd420225bd8b0434U,
  0x3e83db4dbe205f32U, 0x3cd06fca3d0bb6baU, 0x3e8a9b493d3611f5U, 0x3c718b213e4a70daU,
  0x3db8203dbdb15c4aU, 0xbce16b543dbb0ff7U, 0xbe4ca9453e348f62U, 0x3df9e5343e402703U,
  0xbf16e6633da1768aU, 0xbe54a31d3da87744U, 0xbd19ed433df5e461U, 0x3cd14a313dd86a42U,
  0xbf0fc029bf3f3414U, 0xbd097a23bea33f38U, 0xbe4ef860be33fabfU, 0xbd95a1933e59d9a0U,
  0xbd9deadabec49b26U, 0x3be2f2e5bea2b243U, 0xbe9a85f7be4678beU, 0xbe900956bd60b84eU,
  0x3e3e1f90be3a7231U, 0x3e548feb3cdc5894U, 0x3d182ffc3d4f5fd4U, 0xbd037565bd1105a0U,
  0x3eab0b25bc998988U, 0x3e6f41bdbd094683U, 0xbcc70d54bde8b576U, 0x3c81e51bbe5abfdeU,
  0x3ecdc387be5fd842U, 0x3eb65891be90eeaaU, 0xbe5935a0bc61e55eU, 0xbde0710cbd80fe65U,
  0xbd8d2e59bd723921U, 0xbdd7bdc33cd52a96U, 0xbdcac4df3e8c3b84U, 0x3d4922343e321ddeU,
  0xbe17754c3dae33beU, 0xbf08b431bcec247fU, 0xbe210e723ddd64a1U, 0xbdd41f2d3d10d60eU,
  0xbe295e2e3deb9cdeU, 0xbf5dde463baf3f77U, 0xbd7e20913e0f9279U, 0x3d2e45403e1e89a6U,
  0xbd95e6093bf792c9U, 0xbf215eecbdc66aaeU, 0xbd40361e3dca2e7aU, 0xbdf052993db19adcU,
  0xbdb18fc6bdeeb2a9U, 0x3e0155e6bb95f28dU, 0x3d8d444fbd5cb9e1U, 0xbd0830683e7dc641U,
  0x3c5c860d3d9aef97U, 0x3e84b5923d9f5ea0U, 0x3e3328f0be253dc7U, 0x3d91b1a4be9b4f71U,
  0xbe0b03d9bd31b748U, 0x3daba951bd059e23U, 0x3d62a5d2be7ff0b0U, 0x3e2791d8bebfc281U,
  0xbd4d66c43dec5c43U, 0xbe231735bc059cffU, 0x3dc7a7eb3e06490eU, 0xbb94eb6fbe6be65cU,
  0xbe2cd4e43ded9b14U, 0xbe3bb6cb3e944f88U, 0x3e2ab11a3e1009e2U, 0x3e7c722fbe102969U,
  0x3e6f8c3fbd3613efU, 0x3d013cbd3d4052c9U, 0x3cdf0a643e49c557U, 0xbc22c729bde534f1U,
  0xbe9234ffbc4c8b8eU, 0xbe07fd783e180576U, 0x3d901b7dbe28952bU, 0xbcf2086bbeb86ad8U,
  0xbe2ccb0c3b6201aaU, 0xbe41dfcdbd2fe90eU, 0x3c2997053c69033cU, 0x3bff8568beaa13d7U,
  0xbdee54063cc777fbU, 0x3d8eb54e3d911f8bU, 0xbd95cf32beb91a0fU, 0x3e161a7ebdb35e88U,
  0xbdce947c3dcb4017U, 0xbe8310533d4f7716U, 0xbb7dac97bea4191eU, 0x3dc96923bf405b8aU,
  0xbe37be1c3bf2f87cU, 0xbf1082e3bd131103U, 0x3c83ed95be0baa8eU, 0x3ded13b9be680f98U,
  0x3d96746f3b99a575U, 0xbf56e254bda8221fU, 0xb948a28c3e36786cU, 0x3e1527eb3e702e9aU,
  0x3d6637993e7848ebU, 0xbdda15b13e416620U, 0x3db4d30f3e247d1dU, 0x3d0cd4db3e3fbe58U,
  0x3e994eb43e294710U, 0x3e28f27b3d6032d7U, 0x3e236610be2dadf8U, 0x3e1c19ae3dca6d49U,
  0x3d0cb9a33e048a6bU, 0x3f207d743e0e378cU, 0x3dd65f1cbef855bcU, 0x3dcd0ed8be7e781dU,
  0xbce202803d3be230U, 0x3ddf5c74bf01d543U, 0xbd9d5f2fbf171f97U, 0xbe03c526be565826U,
  0x3d30dba0be7a8b87U, 0xbe62bdabbe82b9d2U, 0xbea21fcfbf307813U, 0xbe9c0edebe80577aU,
  0xbe02c3883c98d7c1U, 0xbe6ec4be3db72036U, 0xbd31ffdfbf386391U, 0xbd214cffbea3ea51U,
  0x3cf16522bd1084f5U, 0xbf68f0f8bdb6cf4cU, 0x3c948d13bc73d633U, 0x3e0d34a93eae1336U,
  0x3e54bacc3d8f345aU, 0xbf3406693d2322f9U, 0x3ddcf0413f1ce75cU, 0x3d96fe653f1d9243U,
  0xbdea7943bdfa556cU, 0xbe136a973d768381U, 0xbe07028bbd956ccaU, 0xbe1c77473ea6bf8dU,
  0xbb91d8423cac84bcU, 0x3e22ad5abcf3e148U, 0x3e61ea9fbec73891U, 0x3d896921be94fef2U,
  0xbdbd421abd81e44eU, 0x3eb04e34bdd11169U, 0xbd528c52bf282cbdU, 0xbd3ded5bbf452659U,
  0xbe858957bec54725U, 0x3e782989be712ca2U, 0xbeb1f001beebd203U, 0xbe917f17be0ad5d7U,
  0xbe26766dbf05f02bU, 0xbcc15c10becb4300U, 0xbe6d2ecebeb54f3eU, 0xbe602c22bd259df4U,
  0x3d125dfebd59d8d1U, 0xbc4acde23ddf30bfU, 0x3da1a485bea1f772U, 0x3d1dcc39bd83bb94U,
  0x3de1e851bdf1bf91U, 0xbdc77770be1362dbU, 0xbdff42d63ea74380U, 0xbe22d60c3e8b1c0fU,
  0x3cd701cbbe0b39feU, 0x3d4c45c7be67e409U, 0xbd9b4f1f3e85b9d8U, 0xbdab362f3e593631U,
  0xbe75e567bdcb518aU, 0x3e0505dabe156984U, 0xbe061f47bea7472bU, 0xbdd4df003e7999b7U,
  0xbe3001ffbe5cfd14U, 0xbd00e40abe4ef894U, 0xbdd2dc42bf051330U, 0xbdce3c16beeac10bU,
  0x3dc829be3e2a826cU, 0x3e1cd3313dd08f8bU, 0xb9e25ce0be709e29U, 0x3e12a711bf237f73U,
  0xbd22b6f23d53da70U, 0x3e39f8b13e23b934U, 0xbbcde61ebe37eb93U, 0x3da4b314bd4030b2U,
  0x3d54cc8ebeaf83ffU, 0xbd1b9521beae5ae8U, 0xbecaa41dbf2bdb5cU, 0xbeeccb863d7afab1U,
  0x3ca08a6ebe5cfd01U, 0x3e070f55bd2e4fd8U, 0xbc7aef063e6e9462U, 0x3dcfe66a3eac080aU,
  0xbd8eab59be9d21e6U, 0x3ece12cf3cbf44c3U, 0xbc2cd13c3dfb5e1dU, 0xbe36edd23e0528e1U,
  0xbe16ce9cbe6b194eU, 0x3ea522523d940ed1U, 0xbe11d254bda3704dU, 0xbdc101efbe82bfbfU,
  0xbe9af0a03d9dac18U, 0x3e82fffbbcea9a7eU, 0x3d10f395be424908U, 0xbd7ea5a7bf186aa4U,
  0xbdc0b6eebd8a88a2U, 0x3d42b0a93dc80adeU, 0x3cb871bcbe52b8f1U, 0xbbbe7108bdb9382fU,
  0xbe59e7413d745cbeU, 0xbe9c6c1e3e649375U, 0x3e199673bd56d722U, 0x3e42c8e23e249b13U,
  0x3e0eea763e5989dbU, 0x3d8182923e704d35U, 0x3e01bb363eb07399U, 0x3e192d793e00b468U,
  0x3caabb6f3e1c10ebU, 0xbea83e1abdddcad2U, 0xbe3548573e1bc263U, 0xbca9500f3d648c2eU,
  0x3d6297893e6ef6a2U,
};


ai_handle g_digit_cnn_weights_table[1 + 2] = {
  AI_HANDLE_PTR(AI_MAGIC_MARKER),
  AI_HANDLE_PTR(s_digit_cnn_weights_array_u64),
  AI_HANDLE_PTR(AI_MAGIC_MARKER),
};

