/**
  ******************************************************************************
  * @file    digit_cnn_data_params.c
  * @author  AST Embedded Analytics Research Platform
  * @date    Thu Jul 28 17:34:33 2022
  * @brief   AI Tool Automatic Code Generator for Embedded NN computing
  ******************************************************************************
  * Copyright (c) 2022 STMicroelectronics.
  * All rights reserved.
  *
  * This software is licensed under terms that can be found in the LICENSE file
  * in the root directory of this software component.
  * If no LICENSE file comes with this software, it is provided AS-IS.
  ******************************************************************************
  */

#include "digit_cnn_data_params.h"


/**  Activations Section  ****************************************************/
ai_handle g_digit_cnn_activations_table[1 + 2] = {
  AI_HANDLE_PTR(AI_MAGIC_MARKER),
  AI_HANDLE_PTR(NULL),
  AI_HANDLE_PTR(AI_MAGIC_MARKER),
};




/**  Weights Section  ********************************************************/
AI_ALIGNED(32)
const ai_u64 s_digit_cnn_weights_array_u64[1413] = {
  0x3d2e2906bda708b2U, 0xbec56137bea75f16U, 0x3dcf7618be3c3f58U, 0x3d9b79263def0eb5U,
  0xbe283b4abb833cd6U, 0x3d807f813e29ae0cU, 0x3def3f8d3eb755deU, 0x3e946f4b3dc71350U,
  0x3f0f566b3ee7f53aU, 0x3d4af83e3e9bf5afU, 0x3f0011d53ebf7775U, 0x3ee87f873f227855U,
  0xbe0054063e782d1dU, 0x3db5a410bde6c52aU, 0xbd80995b3e299264U, 0x3e2105ddbd42717eU,
  0x3dfd84c1bc13c40fU, 0x3ec39e3f3dd87255U, 0x3f18dfd93eb37ffaU, 0x3e4b0c633f02984bU,
  0x3f0c8dfc3e2d1175U, 0x3ed3fcd73f07bfa2U, 0x3cb9c47e3db6a7d1U, 0x3e5f7f363ebda3abU,
  0x3e27d72e3e53156cU, 0xbb6fa1cabdf2da7dU, 0x3ed9a1ac3f104f65U, 0xbe7aa3d53c0ae9eaU,
  0x3edbb817bd32cfa7U, 0x3e11c78d3e3b2a5eU, 0xbe72588bbf1cf36dU, 0x3e9054e63eccbcb9U,
  0xbf3dab843f0a4ed7U, 0x3e12cbdbbe97aa9fU, 0x3eda942e3e375ca0U, 0xbe77e92cbf48d1b5U,
  0x3eb58ee53e5851faU, 0x3da6de3e3ec52297U, 0x3e8cf83e3e726235U, 0x3e78ecdb3e0f21e4U,
  0x3da8b1273e0a9d95U, 0x3d6de9343e77aab7U, 0x3e82ed2b3e2d261aU, 0x3e644619bd2a54e6U,
  0x3da540873c5857e4U, 0x3d108bd03e8656fcU, 0x3d4ca8183dfd07c9U, 0x3ea732dcbd108c18U,
  0xbe13a426bcd594a5U, 0xbe664ab8be8312e6U, 0x3ed9958c3ea7dbaeU, 0x3de9ff773e988b0cU,
  0x3e82483fbe63966aU, 0x3e9b253c3e8d46c1U, 0xbec3111cbe422e4eU, 0x3f0db46d3e967e31U,
  0xbe37ad663f146103U, 0x3e4abe80bf7b15a2U, 0x3e9f66093e9c8504U, 0xbf604470bebb31b4U,
  0x3e3ed737bd29c5d9U, 0xbe51aae7bc8c2eb4U, 0xbf369ea7bef01786U, 0xbe96e31dbef61f08U,
  0x3d692a9bbd45991dU, 0x3cccdc89bd185829U, 0x3e09afbe3ea53582U, 0x3ea80cf73ef3da2dU,
  0x3ef6751c3e92147cU, 0x3f4836bc3f0d8037U, 0x3ea63d183e988c12U, 0x3e9e150d3ee57c0fU,
  0xbf0b14213ecd5d2bU, 0xbe14cf50bf2157c1U, 0x3d90b1fcbe26e52fU, 0x3e0e2481bda54b9fU,
  0x3e40f9ad3e568813U, 0xbccc5ade3eb570b1U, 0x3eddb78e3e06535bU, 0x3eed18133f054113U,
  0x3eb81297be0cf1d3U, 0x3e3abb663ea3eae2U, 0xbea3ad403ef2a7b9U, 0x3dec6f1d3c23f004U,
  0x3eb4ab3ebdfbc4beU, 0xbf94059cbf510429U, 0xbf8cdffcbfaa6a3bU, 0xbf602068bf056bafU,
  0xbfa7ef32bf94faf1U, 0xbf4b2191bf65ff58U, 0xbe1a8a8cbe404b4bU, 0xbeba255dbdfa7892U,
  0x3e075c76bf3461b7U, 0x3e03678f3e33f166U, 0xbeb5d0183d9407f4U, 0x3e7ded443eca0884U,
  0x3e5881153ea55720U, 0x3ee057143e07155aU, 0x3eb6dc3b3ea0e40fU, 0x3f07e0d43ea51027U,
  0x3d74725f3c9b7efeU, 0x3e8ed95e3e5c7c10U, 0xb9bc4b2dbb0bc97fU, 0x3ec60c6e3d2d9e2cU,
  0xbe5525cdbd93a14cU, 0x3e25f10ebe1e64bfU, 0xbe92177dbe70dee1U, 0xbdc977353dc9137dU,
  0xbd7f2747bc7a7691U, 0xbd5613eb3cdee29aU, 0x3c8ffb2ebda13516U, 0x3e438ba7bf0f3a52U,
  0x3e3a9d553e8e4189U, 0xbd40cb193e09520cU, 0x3ea28bafbe35b593U, 0x3dd150efbe695218U,
  0x3c0b2b023e6dac27U, 0xbdb2e4afbe4e551aU, 0xbd8a96eebe6f436aU, 0x3dac8bc2be4d9b4fU,
  0x3e58ec4c3e4b6befU, 0x3dfdc56dbe3675f8U, 0x3caf3c77bab84deeU, 0x3dd7544a3dcc5833U,
  0x3c630afbbd10e5fdU, 0x3e825737be9d2929U, 0x3e4ba23e3cf0fe2dU, 0xbdc4f9e43f0e335cU,
  0x3e36c6303e3098b4U, 0x3e3e8c613e13a417U, 0x3df7edef3e9d5276U, 0xbe81e2f13ea605c6U,
  0x3e29651dbd2e1d93U, 0x3e0a202c3cdda1a0U, 0x3e04bddbbd37520fU, 0xbe89069b3e6a7415U,
  0xbd4c5644bdcaf8afU, 0xbdb6174a3d06ec29U, 0xbcf0b000be70a0f2U, 0xbdc112583defb8fdU,
  0x3dd93c80bd54ee65U, 0x3b2823c23e10ed8aU, 0x3dbb07fb3e0cd8cdU, 0xbf05f80f3f07fef6U,
  0x3cbeba213e760465U, 0xbdb18804bd568c9cU, 0x3e86b0f43d47a0c6U, 0x3d7e5f323f0a98ffU,
  0x3e0f3e483e8561c7U, 0x3e1a93483c7da54fU, 0x3f039bce3d5bcda2U, 0x3e7c7b3e3f1f7f3fU,
  0xbe122dd53cb6baf1U, 0xbe7bcf67be0f0ca4U, 0xbe040a44be84b6e2U, 0x3d9c281fbdc1177dU,
  0xbe272b7abdead3eaU, 0xbe06d5ef3e156d1fU, 0xbe8be2e1bc69aaf7U, 0x3e677dbb3e2a0e0fU,
  0xbddce8b1be80d21eU, 0x3b2e86a4be0399bdU, 0xbe8d0455bd0ba6f6U, 0x3d3cd0043f2a6e63U,
  0xbbe8cc353e87fb36U, 0xbd9df3a9bd8e742fU, 0x3d105f263c43dacaU, 0x3ebebb2e3dc5f545U,
  0xbc33a9163e7c2612U, 0xbd9df32dbddde60fU, 0xbdd5259ebd877323U, 0x3ed402a6be18864fU,
  0xbe3489dd3e383a73U, 0xbe7aa27cbe6bb8eaU, 0x3d6cf700be60fb52U, 0x3f454f4abd8198c6U,
  0x3e656e38bd90e320U, 0xbc2b341f3e9ee502U, 0x3d9b3e373c1ea770U, 0xbdba2626bdf191fdU,
  0xbdff09d53e3c71dbU, 0x3e2b6cc13baabbf9U, 0x3c81ad4e3eb9163fU, 0xbc1d6be5be857971U,
  0xbe02c7fd3e1c6fb7U, 0x3d16d2c53e5be3aaU, 0xbe36d0e13e9fa292U, 0x3f26f4e2bda8bbe1U,
  0x3ea1b1e13e4b84b7U, 0xbdd5f9b33ce2ce68U, 0x3e93650bbdd561c6U, 0xbda8942e3d48c9c6U,
  0x3e9d0181bd6561bfU, 0x3e71d20a3cd45f8eU, 0x3ec957433e79d7e4U, 0xbdeffeb13e30df33U,
  0x3d580230be0f4012U, 0x3ece39b4be5f1fecU, 0x3d1f158e3eba6da7U, 0xbee107433df570dbU,
  0xbeb07aaebe78e70cU, 0xbdd615293d6a2aecU, 0xbdfc7c4d3de70f68U, 0x3eb9fb023f0cbdbaU,
  0xbf2fc1f8bf2306cbU, 0x3d586e93be81ac4cU, 0xbf4347e5bdfdd8e0U, 0x3ea102c43e31f304U,
  0xbee25f04be31e8e5U, 0xbeeb112a3e106f3cU, 0xbed5c32dbdabb2afU, 0x3eb3b5d7bed85350U,
  0xbcd82556bcff1c9eU, 0x3e6c16b3bcd2cfc1U, 0x3da44710be59c49cU, 0x3eafc60d3e63abe7U,
  0x3e180d21bda0bbeaU, 0x3e0b3b2ebc90cdb3U, 0xbd282498be3b3e0cU, 0x3ea52c353f0a908cU,
  0xbebab9b0be738bfeU, 0xbe431510bc517943U, 0xbe9cab67bda70f87U, 0x3eed861a3dfc39c7U,
  0x3d6cfbe6bddee37dU, 0xbd991103be3eac46U, 0xbe6dec56be2658eeU, 0x3ca67c103e9c0345U,
  0xbdb60d3f3e4c7f49U, 0xbea6620e3e095a63U, 0xbe84c007bd52178bU, 0x3f4b57a7bc551180U,
  0x3e462dfebcc5ceb7U, 0xbe08ff523dd8bd0fU, 0x3e12e6abbdb4ad3eU, 0x3d17d81ebe86228cU,
  0x3e7f8f673eec4460U, 0x3e585a89be8c84a7U, 0x3db32f8c3deef09bU, 0x3ef11f823f08e166U,
  0x3e84597f3de57782U, 0x3ea620d23e0f2c2cU, 0x3e86fad93e395e9eU, 0x3f0d48703e65bf8dU,
  0x3d433a2dbdae42a3U, 0x3dc498523d15a437U, 0xbd50b82a3d097b1aU, 0xbf05c759bf082bb8U,
  0x3d18f2dfbe53ebfbU, 0x3e5b1425bd009820U, 0xbea277643d924a42U, 0x3e1b4d063e4e309aU,
  0x3cd3b41d3ccee620U, 0x3cf330ad3b33c495U, 0xbc0fbab3bde5f373U, 0xbb96ba2c3e470c7fU,
  0xbe0534ccbdfbb64eU, 0x3e826e033d98ca31U, 0x3e486dd03dbcfc5dU, 0xbd08e8c13e55e576U,
  0x3e7db9593e20dab8U, 0x3e5c27903d345c7eU, 0x3eb0f6803e2a9fabU, 0xbd89885d3eb776e6U,
  0x3e69ba813d41db1aU, 0xbd0407aa3e28927bU, 0x3dd867223eaecd3dU, 0xbebe9bcc3ee1b812U,
  0xbe75b8013bf1ae57U, 0xbe0b633a3e27b15bU, 0xbda435743b9a7486U, 0xbd2147b7be69c657U,
  0x3e0dc7e13e037a8bU, 0xbd57c38a3e8ce7feU, 0xbdc48c4a3e6a0858U, 0xbedd547e3de4f649U,
  0x3e59185f3dec7f50U, 0xbd7183c43e46487bU, 0x3ca8fe6f3e090a4bU, 0xbe80b6bcbdd3e969U,
  0x3e3ef0ae3e0463b0U, 0x3c3411eb3e3b881dU, 0xbe903900bd4d0b7aU, 0xbeb94a8abe9758c8U,
  0x3d401b903da33515U, 0xbe08e99cbe554fe2U, 0x3dc697c13ecea6bbU, 0xbe144c85bea38910U,
  0xbdd45b4b3dccb1b2U, 0xbc6837b53e4f4febU, 0xbd5c21443e0a36ebU, 0x3be547a6be515e10U,
  0x3da6ed353d22df45U, 0xbb668b293e7842adU, 0x3e892405be89781fU, 0xbe845f3dbf10773aU,
  0x3d1f97edbc31cb49U, 0x3db03e013d121472U, 0xbd2f13753ddedf03U, 0xbeecf57cbe961793U,
  0x3dae2e933debbbf1U, 0x3ce490423dbe026eU, 0x3ca88f4f3e43fc02U, 0xbec4472fbdf913c3U,
  0x3e0fd8e63de918caU, 0xbce6c9723cdfdbaaU, 0x3ebf09a43e08286bU, 0xbe2b26ab3eb0e47fU,
  0x3d7f90103ebfcd33U, 0x3e339359bd509e24U, 0x3d18ecd9bd85a368U, 0x3e2bf3a13ea6b9bdU,
  0x3e60f8163e771014U, 0x3e5c8a25be4c5a8dU, 0xbc9a8581bda0bcc6U, 0x3e383d923e8e8edeU,
  0xbdd182e5be3dc5e9U, 0x3df34bae3de6692aU, 0x3dbfeb27be223186U, 0x3e7b874f3edd315bU,
  0x3e19cf083e20121aU, 0x3dbd652e3e56cd56U, 0x3e0252283e5e35dbU, 0xbd9026343e8411a1U,
  0xbe6b29f1bdf22d7bU, 0x3c4efbce3e64831dU, 0x3cd363563e9b28c5U, 0x3e0a0209bef8895fU,
  0xbd08b181be21fca4U, 0xbd5372f93ec1c0f4U, 0x3dbad404be79baf6U, 0x3e7507a7bf04d3a2U,
  0xbe599c85bdccebd1U, 0x3e04a8653b4e0eb7U, 0x3d13ad9cbd848912U, 0xbc3781a0bf300bcbU,
  0xbdae12ddbcaff446U, 0x3bd364e73eacace9U, 0xbe7fb3f33f28b9edU, 0xbe13579fbf189020U,
  0xbc8d03b03def0694U, 0x3e02e7e33ddc94a8U, 0xbda6f90c3db80ab6U, 0xbeeafccebf2c87a6U,
  0x3dc350a43e2edb10U, 0xbe1fa9bbbb833309U, 0xbe7c2bd63e342bfeU, 0x3d64c590bf1bcf4fU,
  0x3dfbc4e1bdf22773U, 0x3e3da0c23e27a8ccU, 0xbe1010af3f240298U, 0xbf014694bd980379U,
  0x3cdada1cbc3b2aedU, 0x3db1bd883e93ac1dU, 0x3d6b68f53e8cdf85U, 0xbe86daedbec5af91U,
  0x3bab0edc3e02c314U, 0x3ced00b0bd7c207fU, 0xbd774f8abe071c2cU, 0xbd573d2c3cb630aeU,
  0x3e85fe673e4a26a3U, 0x3e4be8153de75931U, 0xbdf605363e4d8919U, 0xbe47bf77bdd28b5fU,
  0x3e443e5b3e842609U, 0x3db7b4693e7f7a42U, 0xbdc59e313e57c999U, 0x3d4bca87bcf3ccedU,
  0xbdce6fdbbd8a9de1U, 0xbd03ecb83e85c3b4U, 0xbddc92a73e8ab1c2U, 0x3e081e73be9f97b2U,
  0x3e37798cbcf3b9a6U, 0x3e5ed6fcbdf87419U, 0x3e018f983e2a53dcU, 0xbe5bd991be730852U,
  0x3e98f1ca3d253f04U, 0x3e80d1d73ccba735U, 0x3ec3286abcdd7106U, 0xbf1641dfbd61e699U,
  0x3e1d129abe8b092dU, 0x3ddab5013e461840U, 0x3eb75fc93f022357U, 0xbee7afd33dc9dc11U,
  0x3d7441ebbd946314U, 0x3dc2fdcb3e0f456fU, 0x3d93e7eebdd85e63U, 0xbeec9ef73ebdc274U,
  0xbe3e73a8be4438beU, 0xbe837cc93deb03cdU, 0xbe7bbdef3c6e5725U, 0xbc9168103d555f13U,
  0x3e47f5953e557b41U, 0x3ebab9353e5abc00U, 0x3e7327a73e8379b4U, 0xbde263aa3e388e11U,
  0xbd4913593a2e7571U, 0x3d865b2e3d9d6834U, 0xbe2a477bbde6f8adU, 0x3db0a5403e97aa0fU,
  0xbe3f19443d9f414cU, 0xbdd3e1253d4e1946U, 0x3edfe582be8f9cccU, 0x3ea8f9353f071016U,
  0x3eaeafa33d052131U, 0x3e1191783ef45af2U, 0x3e616b183db4b77cU, 0xbd3b7523bea147ceU,
  0xbe088067bda36178U, 0x3d868875bdff0d1aU, 0xbed1e46abecddff4U, 0x3d9d86933e1e805bU,
  0xbea7ad29beb2149eU, 0x3d679b2e3e472caaU, 0xbdf9d906be77f3e8U, 0x3c418b323e0ec046U,
  0x3eacd7c33e597ad5U, 0x3da52fc33ee5c9f3U, 0x3dcc76243e107ecfU, 0x3ebe3e19be87b4e9U,
  0xbb6f94aebda3fedfU, 0x3df629b1be0a7321U, 0xbe6c0a19bdc505c8U, 0x3e4385a5bc7c0ad5U,
  0xbe7950f6bee379abU, 0xbef747cd3e22fa34U, 0xbe25242bbed54751U, 0xbd3cc194bed7740bU,
  0x3e291f473d6e5429U, 0xbe2995a4bd5776d5U, 0x3e86ceb83d86614cU, 0xbdffc2b3be685d22U,
  0x3e1e36a03e00e48aU, 0xbe863415be72d028U, 0xbd81663e3d86179cU, 0xbd400191be8ed44dU,
  0xbe4ab6c0be2ed4d5U, 0xbdcab6cebf07b121U, 0xbe6d2990be8b3d37U, 0x3eb8177a3e0e23d4U,
  0xbcbc8878bca70e9bU, 0x3e01da983d9e84c3U, 0xbe70b1b4be82899eU, 0xbdbc811a3efa13a0U,
  0x3eade9f23e76dbe9U, 0x3e79526d3e6b4593U, 0x3e11d2a7bc217578U, 0xbe16daae3f3ce1faU,
  0x3cbd77f63e8e24d6U, 0x3e86be31be6902deU, 0x3e5821ddbe036927U, 0x3e0581ea3e981dcfU,
  0xbd3504f33d949788U, 0x3e04fce33bcea02dU, 0xbe131079bec8a337U, 0xbec2d2703e26d581U,
  0x3db2ba0fbcb5c5d6U, 0x3e3fc2953e566349U, 0x3d387ceebce810baU, 0xbd8cecaf3e907c12U,
  0x3bf67c42bd23741fU, 0xbbe995d7be25cc00U, 0xbdd4a961be86275aU, 0x3c855e3c3edf59a5U,
  0x3e321edd3e038698U, 0x3e28b1c93d203926U, 0x3db168413de45714U, 0xbe117946bd40e1b3U,
  0xbdc8d1f23df8df7cU, 0x3cb43ec13e474bf0U, 0x3d9b0c3b3da0a6a5U, 0xbf050d36bef12a99U,
  0x3e37be333e3bd35cU, 0xbe8848f2bd440274U, 0xbe28a5033e512347U, 0xbe463564bed8d9a9U,
  0x3e05876c3e0df9c0U, 0xbd700f8bbdff50f4U, 0x3db15f1d39632be6U, 0xbe73572a3d1080e7U,
  0x3e1041583e082b16U, 0xbe1599e8bd28caf9U, 0xbd66ab5b3ee2975fU, 0xbf28f007bee18f83U,
  0x3e0421c03e44aac4U, 0x3e1fe3943da0c733U, 0xbdf608d03e555a38U, 0xbf0a894a3d01aabcU,
  0x3e590f1b3e6a4a54U, 0x3d1ecabcbca1ae79U, 0xbde2478f3d681133U, 0xbd0943e13d6e2370U,
  0x3d58f0863e0b7292U, 0xbe09daf5bc3495c0U, 0x3e6ea34c3ee9555eU, 0x3d545daf3dc4d5a7U,
  0x3eaed4243ec40235U, 0x3dd037253cdde231U, 0x3d3ab02bbd6578d2U, 0x3eeb44223dbc30a3U,
  0xbd1c4d4cbdb348b2U, 0xbccc69fc3df2d7a1U, 0xbd5f7b9abdb81c32U, 0xbef8c96abceab35aU,
  0xbdab58e8be09a4dfU, 0x3de607b9be130d23U, 0xbe5988ecbda6bfcfU, 0xbf2c01513d33bcc1U,
  0xbea6ae57be330563U, 0xbde596633e19901bU, 0x3e3e90b43e2b68f4U, 0xbf763418be86a214U,
  0x3e5043e63e929ac2U, 0x3d530569be785e7fU, 0x3e23b4c3be7d1a40U, 0x3e22068e3cb26628U,
  0x3e3526703e76d3a8U, 0xbe863a0fbf52fe5dU, 0x3cc44b1dbf03411dU, 0x3f10ece43f0aee40U,
  0xbe411b313a2d497dU, 0xbe885748bf54d66aU, 0xbe61b2ebbe2d85e7U, 0x3ef910313e57c7daU,
  0x3e695f813e4f796fU, 0x3e57860bbd847777U, 0x3d49f3ddbcd10383U, 0x3d2a1c6f3e923c99U,
  0x3e13ecb93e0b1db3U, 0x3e0dcd113e61cab0U, 0x3e97c4bdbe6ee34eU, 0x3ef5f4c93eded6bdU,
  0x3e34daef3d9c71ccU, 0x3eac66bb3e0f2ef3U, 0x3e44f91bbe5dd7c0U, 0x3ee9b67a3e69c223U,
  0xbd8070debe21f991U, 0x3dc1b90a3d1648aeU, 0xbe3aa96fbecee632U, 0x3dd712b9bce2949dU,
  0x3db50ec13dfce812U, 0x3dca4a113e05b031U, 0xbe0055e53db86090U, 0x3cfced1fbdc172c9U,
  0x3e25c93c3df34c91U, 0x3dde6fcb3e44d721U, 0xbcd8e897be0a7a7bU, 0x3e22d8093e862ceaU,
  0xbeabec13be6147a1U, 0xbe03bb97be239eb4U, 0x3e0ea7c1bf111428U, 0xbe86af5fbece4a29U,
  0x3e998a1d3ccb3681U, 0xbd81022b3e2adfc4U, 0x3e135c193eac9df1U, 0x3b6de553bee35a80U,
  0xbd39d863be18cc87U, 0x3dfb7479be877640U, 0xbd2f406a3e6acd7eU, 0x3db6754e3e595dceU,
  0xbe9e5e98bf12fd12U, 0xbe98a0713e42b0b8U, 0x3e1009aebf29bb46U, 0xbe4c7b9cbbbc6161U,
  0x3ee32e083e6fb8c6U, 0xbcfbabea3ed2180eU, 0x3ea6b5153ef2749cU, 0xbe8589ccbea473ffU,
  0xbddb173abe8123dbU, 0x3e5a7352bf31cdf7U, 0xbf1fcb883e18505dU, 0xbe5eb59fbe5283d8U,
  0xbd78fe72bca82e98U, 0x3e6b0c2bbdfede9fU, 0xbe4e8c2ebd89cc59U, 0x3d1c4f08be82a49eU,
  0xbd844fd03c8e81a1U, 0xbe18f11abe93d505U, 0xbd5342a53b8029d4U, 0x3e2348d63cc0211eU,
  0xbca367083dee742dU, 0x3d92e823bcaac31fU, 0x3e3391e43c695d39U, 0x3ecc60de3d227164U,
  0xbdec35dabc781ebbU, 0x3caba19fbce71b23U, 0x3db8930f3db9fe99U, 0xbc910fef3e29322fU,
  0x3dddfc2a3e81a980U, 0x3d38cd593da750ceU, 0x3e97a7653d5a37a1U, 0x3c8387fa3e5d3482U,
  0x3e460c063dbdeddfU, 0x3da87ae6be8b75b6U, 0x3eac04f8bc5755e9U, 0xbe5050513ebf04b8U,
  0xbd89c0233c42f537U, 0xbc93d269be0bea70U, 0xbdfeb31cbeb01c6bU, 0xbe13d307be1d592cU,
  0xbe5b43acbecd544bU, 0x3e08d2863de5b674U, 0x3d9fac06bef9a801U, 0xbf62588a3eeebd70U,
  0x3e4f82443e76154cU, 0xbd5b04ad3ec42b73U, 0x3e7fa400beb3a295U, 0x3e94853c3f03c92aU,
  0xbd77b7fc3e7a471fU, 0xbe152fa43dc3b198U, 0x3be7567cbe9ed94fU, 0xbc430f9a3f05e453U,
  0x3ea5caca3ecdb0fcU, 0x3e8da3ab3e3192a7U, 0x3e009b2bbe5c466bU, 0x3d0ecaf03ef33dbfU,
  0x3e1d71243ebc63c7U, 0xbc8ee30abdeb17deU, 0xbe179ad0bd9cec29U, 0xbcf4b210be9dad31U,
  0xbe1c08c4bd5c88a3U, 0x3e583290bd234cbfU, 0x3d7d071abe94863fU, 0x3eaa103d3d02d61cU,
  0x3ca8e6eebde2d294U, 0x3ea4a9f93d7e0bb5U, 0x3e15bedcbeaeed79U, 0x3e7e468f3df5fde8U,
  0x3e2d141f3e25c744U, 0xbc8b79773ea86642U, 0x3e8b3e8c3e3fc702U, 0x3d902d07bdbf8e46U,
  0xbe6f0e2bbe28b396U, 0xbe881751bda2b03cU, 0xbde07330be8556c3U, 0x3e53ac113e59af3fU,
  0xbbdf1f06be95e0ddU, 0xbe592196bd9e7863U, 0xbe78c9f7beacf87cU, 0x3e2b52c4be41d84cU,
  0x3e4ca9babd8d10faU, 0xbd81adeb3db40412U, 0x3e9dca5c3e1183feU, 0xbe244f81bf1e5077U,
  0xbcacf27bbd30659fU, 0x3e4224163ea7addcU, 0x3d6cc80e3e0efb55U, 0xbebfcc643dcc90c4U,
  0xbd721ac7bd4e3490U, 0x3e01caa3bd786b2cU, 0xbe7e54f7be008e6aU, 0x3e6151a03d10c435U,
  0xbdf680ea3d262dc2U, 0xbd31fef3be7e9fc2U, 0xbed245743d627134U, 0xbe1e6aaebc8bda14U,
  0x3ca68f983bccf087U, 0xbe817eee3df0372dU, 0x3e7c271e3e6fc6b1U, 0xbe8754c1bed08a54U,
  0x3e2df2aebdb9d75bU, 0xbdc8a8b6be566cf7U, 0x3e8290533d33e21eU, 0xbe973eb9bea61a63U,
  0x3e8bb49b3e76c7d7U, 0xbd82b21bbbbcb466U, 0x3e8440a4bde08e9cU, 0xbd440a363ec92069U,
  0xbb567fbfbe60d8e1U, 0xbd7a887f3ecf3ac1U, 0x3ed8cd363ed3eb26U, 0xbe1039debdba6b2cU,
  0x3dccb847bdc05a53U, 0xbd60aa293cf0b037U, 0xbddb87143be0cd2fU, 0x3dd75fc1be929acaU,
  0x3e00dbf23decb5a6U, 0x3e13bef43dc4ff67U, 0xbeae916dbdc9a184U, 0x3eee8a8e3d7d88d7U,
  0x3dbe3aa6bd98cda1U, 0xbd99fe063ec84979U, 0x3d9f05e43dbafd17U, 0x3e8562d43eaf8382U,
  0x3c320cc03e7d9a9dU, 0xbe23244abd8a29c9U, 0x3e08e5de3da435dbU, 0xbbd27d35be891436U,
  0xbe334f69be018ddaU, 0xbc177783be32fc16U, 0x3c96ae3c3e3b7dadU, 0xbedbc2413e1d7a62U,
  0x3e08a8e93e1f4eecU, 0xbe233b793dc84c34U, 0x3e4038d3bd532be7U, 0xbd5179dd3d35d7ffU,
  0x3e792ed0bd1e4693U, 0x3d3b0602bdbf3a15U, 0x3d6737a93ba05d51U, 0xbbb18abd3e6bdecfU,
  0xbd9479a83be9af74U, 0x3d8abd1b3df49769U, 0x3d374af93e540323U, 0x3e74bb4dbdf673a1U,
  0x3e10b36839cc6b60U, 0xbb31b442bed47907U, 0xbd456b413e09f2f3U, 0x3cc4452a3da09c91U,
  0x3d349de53dd389feU, 0x3e3046ea3dfc8932U, 0x3e7b28a6bd5c1cf6U, 0x3e7a8c4c3e7b66a5U,
  0xbe2928d33e014f3eU, 0x3c8702a2bdf85b06U, 0xbd0c991d3eb3de6aU, 0xbe1493303e13b2afU,
  0x3dda27bdbdef1a1aU, 0x3aa458053e1c89c2U, 0xbdc4dc493e527b5fU, 0xbec9c0b5be3b0125U,
  0xbeecf10f3e3cbbddU, 0x3d50f801be480823U, 0xbe332a6e3d8e11ffU, 0x3e3715593d763c1cU,
  0xbdc2a62a3da0f15fU, 0xbe730e90be3d0ecdU, 0x3dff9f7c3e9b7c80U, 0xbe28b6a3be923e3dU,
  0xbe337461be97aaa6U, 0xbe42d23ebe93271cU, 0xbdb19266bbc24a7fU, 0xbd366044bccbef20U,
  0x3dd422183e03d8acU, 0xbec3e2bbbe76e5b0U, 0x3cbc9d2ebc88b69bU, 0xbe890f5b3dead8ebU,
  0xbe20399cbd86b99dU, 0xbe693e5bbf132399U, 0x3e7c4b9d3e8804bdU, 0x3dc1e9013e52af08U,
  0xbc89e706bea3e789U, 0xbef312953e80f167U, 0x3c75a3993e06a93dU, 0xbe2c903cbe0782f4U,
  0xbeccf477bda1afb8U, 0xbe25a500be16f099U, 0x3e1963cc3d8b147aU, 0xbe3cd1253db60286U,
  0x3e36b65b3e0fa18aU, 0xbdac9dd23e9605edU, 0x3bef73b3bcbe0cb6U, 0x3d831ff9be254845U,
  0x3c54c09e3cfafde0U, 0x3e4a868b3ef217d0U, 0x3eb0b521bebff5cdU, 0x3d31c7933eaff97bU,
  0xbeaea2b6bf0bfb81U, 0xbea56285bdcb6066U, 0xbd901fb3be99a3ffU, 0xbedf3b9ebe8a452dU,
  0xbdf24422bd682513U, 0xbe98f31bbe2f6babU, 0x3d3534613e19752bU, 0x3c6daa65bea76aecU,
  0x3dfa13e53af460a9U, 0x3e1c4ede3d96e0bbU, 0x3dc481b7be7ca128U, 0x3d2d31eabe2283caU,
  0xbe31f4c6be7c85dcU, 0xbdbfc9203e87b9c5U, 0xbe4260d13d708968U, 0xbf064a9ebbd16f0eU,
  0xbec56a503f21c4efU, 0xbe97cb413e8de2aaU, 0x3e6d5e0f3ea4dc03U, 0x3abd2432bdda88d3U,
  0xbf13fd66be093e04U, 0x3e45b3103ea59625U, 0x3e210dc73d99575dU, 0xbdfc8ca23d57c5a8U,
  0xbebb0d3a3f1bd3d0U, 0xbe723a3fbe0f63a2U, 0xbf4a3fd13f38a7dfU, 0x3e167b913f33af1cU,
  0x3d3545cbbe47fa47U, 0xbed98801bd97c50aU, 0xbea3a846baa7e829U, 0xbc2c212ebda767f8U,
  0xbc5562a23e09f6ccU, 0x3e4a9d37bf0f5512U, 0xbe0b3bb53eb00d1cU, 0x3e6c4c8abd93b58cU,
  0xbebdeef53deaafeaU, 0x3e0dcda13db960c4U, 0xbdc02b7abeb88f0dU, 0xbd30aa7ebe040ffaU,
  0xbe35217d3e833e2cU, 0xbe868c0e3e5fe338U, 0xbd65c77ebcf66282U, 0xbe02562e3e9de617U,
  0xbd41c08e3d23994cU, 0xbf20cd66be959469U, 0x3df9cac73e46060fU, 0x3e87ad0b3e80485fU,
  0xbe5eafbc3dfd4c6fU, 0x3df0b32bbe61ad0aU, 0xbd5d2cbb3e81e661U, 0xbdca5e73bda7bea1U,
  0x3e6939c2bd7fc11fU, 0x3e43f62c3e88ff56U, 0xba2db946beb12ba0U, 0xbef663ed3d1a8df8U,
  0xbeb0f5253e601738U, 0x3e7b3ce63e138454U, 0xbc21d11b3e6693bfU, 0x3eb7291bbc90df93U,
  0xbde6405b3cad998dU, 0xbe321d693e7dac0dU, 0x3e8b3ac2be2fbe74U, 0x3d3e2f033d38a53eU,
  0xbd6bd5123ef81efbU, 0x3da3d5313e08226cU, 0xbe35bd9a3dfc8e4bU, 0xbf156dc2bdbe8e0aU,
  0xbf009e58bda1b74fU, 0xbe9eafaabf262636U, 0x3de90135be06035aU, 0xbd9a14fbbeafb481U,
  0xbe15a2693e5bc81cU, 0x3e49bc9a3e4f9d4aU, 0x3ed8f95cbcd46a2cU, 0x3f04d35f3da578aeU,
  0x3e7a2c903e9aa640U, 0x3d870ee93eaca981U, 0x3e2e58dabeb522e9U, 0x3eadcc803cd26548U,
  0x3d6cccb73dc806ddU, 0x3d594de2be245cdcU, 0xbdfa71cabe5f059fU, 0xbc97b934bd2c0b6cU,
  0x3ec94b3abd774cd3U, 0xbda53e4c3e4178c1U, 0x3e09a7b2bd6b07c3U, 0x3eb9c4663c3213b2U,
  0x3e4229583c293778U, 0x3e954f61be14823dU, 0x3cdaad33be256dd0U, 0x3e4845fe3d75c6b0U,
  0x3dd6b442bbfd811bU, 0xbe586f74bf228ddeU, 0xbdc78f653e51bc4fU, 0x3c42584fbe265b0eU,
  0x3dbbafe43e9aa6a8U, 0xbdae8ab8be20cfa3U, 0x3ca7738e3d36b701U, 0x3e27160b3da0ba6bU,
  0x3e59f1abbe0a8aeeU, 0x3e2a18ca3ed3e369U, 0x3d80ab98be967f8eU, 0xbcd39d9ebde4c9f9U,
  0xbdd1af0abe332e83U, 0x3f221c37beba08c9U, 0xbc45185abe11ae42U, 0x3e9f12a1bd04591bU,
  0x3da06a043e23f088U, 0x3e454f663de04d7aU, 0xbe85012abe06c4ceU, 0xbe00eb6ebe0679f3U,
  0x3c104cb4bee26df3U, 0x3e57f609bd680823U, 0xbe82fcf8be79b700U, 0xbea396dd3d910298U,
  0xbe061de2be4037e6U, 0x3e039242bd454909U, 0x3d9857cfbde80a25U, 0xbe5f6e143e17b778U,
  0xbe34b88ebdcb864dU, 0xbe88abc53ce8ea3aU, 0xbf202e653e0be753U, 0xbdf288a23e39adb9U,
  0xbdb846773e8d2707U, 0x3ed58fc63d74aabdU, 0x3e49c20f3d0022aaU, 0xbe17072e3ee3832dU,
  0xbe899cfabe84914eU, 0xbd19ea3bbdec2aacU, 0xbd956bbc3f01ef0cU, 0x3aa637893ac5fe6cU,
  0xbebe2ee53e1c6636U, 0x3e3b3a6e3e0ee3d9U, 0x3d2c28f03de1b541U, 0x3e25e63f3e08979eU,
  0xbd8bdd853c021c8cU, 0xbe88184f3dcb7677U, 0xbc086f093d69a983U, 0x3da628ffbeb542a2U,
  0x3ef3a9663d12d77cU, 0x3d1ca1093d890a0eU, 0x3eae2cdcbedef1feU, 0xbd118876bece152dU,
  0x3de7ad73bde038c3U, 0x3ea595c73e6e0ed6U, 0x3ef88c83be2233dcU, 0x3d011686be8d0dc4U,
  0x3da17ca73eaa20beU, 0xbe814f473dad382fU, 0xbce93c0f39e88274U, 0x3f15cbecbd8aa480U,
  0x3dd9bf09bf031f46U, 0x3e4a773ebc02d061U, 0xbe0ab68bbef8b360U, 0x3d2fa613bea8db5cU,
  0x3ec226763dc3b3ecU, 0xbd809e3e3d4352a7U, 0x3e9e49ae3e4f0376U, 0x3dd37df8bea839b5U,
  0x3e188863bf803606U, 0x3e8e409cbe19b4f3U, 0x3c9ff275bf36cdf4U, 0xbb475f263ed85053U,
  0xbd18dcce3dcbf9dcU, 0x3e20cacebeb9806eU, 0x3da6c4003eb0c4ecU, 0xbe5303283c4299daU,
  0x3e1f1bc03e0f6827U, 0xbd1f5e0c3e1b9e78U, 0xbde883e43ddad2d4U, 0xbd2a2a103f1864adU,
  0x3e3a2c87ba8c1dd1U, 0x3c4a68cd3ec48cc9U, 0xbe022493bdf147c2U, 0xbec9816b3d45d8b2U,
  0xbe94f84abe3bf1a6U, 0x3e893104bdc78843U, 0xbe6349bebe0a6ea5U, 0x3ed619bb3d80a8b7U,
  0x3daf5a0d3e1abc60U, 0x3e6ce64d3c9955daU, 0xbe653709bccef192U, 0xbdf193f0be10c7a4U,
  0xbe8a3758bf33bd02U, 0xbe836e23bbfa076aU, 0x3d8e794cbe262281U, 0x3e3ae37f3d70dcd6U,
  0x3dd9bca83ea2e701U, 0x3e11cac93e43f83eU, 0x3cf147713de0aedcU, 0x3da79b95be8b3b3cU,
  0xbe02b15dbe8da09aU, 0x3e8aa2a63e56bbadU, 0x3e78b68abe55a43dU, 0x3cccaf86bdd9e887U,
  0x3dfbce5ebd357a97U, 0xbddcef24bcc1789aU, 0x3d8f5bf4bd06bf31U, 0xbeb7ea94be609781U,
  0x3d091349be34fa95U, 0x3eb85ab2bdb35babU, 0x3e40484fbebbf388U, 0xbb86f0d5be95e80bU,
  0x3e83b0d2bd1a454cU, 0xbd1d06f63e25d4beU, 0xbdd8abe7be4ac5ffU, 0xbe9633f3bebbc27fU,
  0x3e0f6caabea3e30aU, 0xbd145a68bebddef5U, 0x3c8691a9bec8474aU, 0xbcdc81c1bd9790cfU,
  0xbebe95e4be044ba3U, 0x3ea79150bc2c3c66U, 0xbe7693403e1f0a2cU, 0xbe2c95943de44e81U,
  0x3c7bece5bcd7d54fU, 0xbe7b2de23d312dccU, 0xbd6f8672be7f37b3U, 0x3e267f993c7a950aU,
  0x3bbd60873ba7e48bU, 0x3e0d23d4be8cd43dU, 0xbdfbb25ebe19fe4aU, 0xbf2f22b33ce65a7cU,
  0xbda56a95be5f2944U, 0xbdeb02acbe0c9bc2U, 0xbd9b3fcf3ef5fcd6U, 0x3e8eb774bcfc2b3fU,
  0xbf0754ccbee143cdU, 0xbd9064ffbf8718fcU, 0xbea5fbff3e7110c0U, 0xbf2ebabd3dfb2322U,
  0xbf0916003ef76550U, 0xbe9de34c3d77de24U, 0xbdfde8c13f18e189U, 0x3cdf2de9bde9577aU,
  0xbf2f7f84bee12c51U, 0xbe96e74ebefbd206U, 0xbd8b39d63dbff139U, 0xbe3b8f4c3e296544U,
  0xbf2cb9413dc5b8e0U, 0xbec78a103de90a02U, 0xbe0079663ef65abdU, 0x3d414ca8bdec4df1U,
  0xbecac248be0321d3U, 0x3e5a61fabe424b45U, 0x3e207c91bd76a2ceU, 0xbcd63378bd8516b6U,
  0xbdc36d2a3f0547afU, 0xbd10241dbd23c16cU, 0x3caeff083e1f4c11U, 0x3c7ae929bca94ebeU,
  0x3dce9d573e740db3U, 0xbe03e538be143792U, 0x3e3ca6253deec6f3U, 0x3cd2aec83e3f5955U,
  0x3e505f7a3e86eb77U, 0xbd9ab2963e632c9fU, 0x3e35d234bdd48d01U, 0xba46532fbeed93e9U,
  0xbe93637d3e025d3dU, 0xbdffd777be8d1cf2U, 0x3e666e753d6c1173U, 0xbe2829ec3ed62f28U,
  0xbd969b97be9c2107U, 0xbeafb1753eb67e66U, 0xbe58caa8bdece1aaU, 0xbed397a5be84fa11U,
  0x3da42148bb0ea454U, 0x3c9ef8253ddeb3d0U, 0xbdf50839bcab663cU, 0x3e8e3ab4be953e31U,
  0x3e2125fe3e3d9d57U, 0xbd318c6d3e35d1a6U, 0xbe1e45b93cacffb5U, 0xbca15cd73dd6a82bU,
  0x3e1cfab7bdedd5d5U, 0xbe30c17fbe210cdfU, 0x3de322ae3dd3d902U, 0x3d00ca0dbbdeeda0U,
  0x3d97c3f03e92672fU, 0x3ebe024fbe95e95cU, 0xbd8bb7943e2a275eU, 0x3df89c1e3ea0079aU,
  0x3d7df8833d15a7c0U, 0xbf2259613c1d7213U, 0xbe8265a83b01ed6cU, 0x3e13aae2be8e0d6fU,
  0x3db388b93e2c9d07U, 0x3e561357bdc6d9b6U, 0x3e5a0fe53e9de40eU, 0x3ecf193cbbf83595U,
  0xbd9399c8bf043106U, 0x3df46814bc440452U, 0x3d426c18be8656d2U, 0xbf31177d3de0da62U,
  0xbe466cbd3e4c8745U, 0x3d0cf54a3e279e94U, 0x3cd972d73e91c10fU, 0x3d863ef13cdb3fb1U,
  0x3e1f7a8f3dc1f7f0U, 0xbe84fca73e94a6feU, 0xbe480c8e3ce2ff77U, 0xbd819ed93db6fe88U,
  0xbe0d06bcbe28c7c4U, 0x3e25dcd93e68bca1U, 0x3dcfab573e58d494U, 0x3e3e6ffabe3a1c29U,
  0x3eb871aa3e01378dU, 0xbce9cb533f4484e5U, 0x3e269788be0e03a9U, 0x3ed229293db0e794U,
  0x3ea94ccabf150c42U, 0x3df1f247be1ca44fU, 0xbeec1a6ebf01d6b3U, 0xbcec5db3bf55c841U,
  0xbe97258c3d1b6e0bU, 0xbe149f1fbe58d9fbU, 0x3e8106973cb2d3a0U, 0xbda65937bc269f55U,
  0xbd5b0d963e02e579U, 0x3e9703753e038029U, 0x3de0171cbea4a5fcU, 0xbe001b823c8eb4f6U,
  0xbdcfdaad3e5fb0d9U, 0xbd91f771be323f0eU, 0x3dd7d5d4bdab6e57U, 0xbd3331913d3fd029U,
  0x3e30bbec3d2f6504U, 0x3dcccbf03d83254cU, 0xbcbfce9f3e82bcd1U, 0xbd0c1e8e3d7bcf19U,
  0x3f08b8f33cf4f244U, 0xbdbf26d43cc4b710U, 0xbe8bca3a3e2a60c6U, 0xbe66e101bf0f046eU,
  0x3dc442aa3e817000U, 0x3df991f8bed55df5U, 0x3edf30bd3de6f262U, 0x3d1ce4d7bec03febU,
  0x3e715c993c82be14U, 0xbd0b1d5e3c4b9f39U, 0xbdee6b2fbec11585U, 0xbeae556f3d288bf9U,
  0x3e4a9320bf407746U, 0x3e7c7b63be9ff939U, 0x3eaef4f7bdaa4adfU, 0x3ed7a3673cf5fd6bU,
  0xbc15cfae3dba2c47U, 0x3e84da973cc34339U, 0xbd745db8bd0607d1U, 0xbe83b97fbea1c1a6U,
  0x3e1eff62be340f92U, 0xbcaeeec2be39db49U, 0xbe871354be65228eU, 0xbe54328c3d9ff47fU,
  0xbdf70536be5ab166U, 0x3e6ef2e4bd1aa64bU, 0xbe08401dbd029b31U, 0xbe86601e3e6e9852U,
  0xbdba59cf3d3f50d3U, 0xbeb5fb953e148959U, 0xbe80429b3cdea820U, 0x3d92afb13e10e988U,
  0xbde980a9bd42fd07U, 0x3d16a89fbee3b890U, 0xbe5010f03ea9a8efU, 0x3e8289f03e2d1b5bU,
  0xbd0cf7eabb139da6U, 0xbe8d562dbdf3db72U, 0xbd9418053e78e599U, 0xbe66f5da3e09c241U,
  0xbf1d8da3be56aeb9U, 0xbea50088bcec2656U, 0xbe030befbe06ffafU, 0x3db90fc83e112258U,
  0xbe91f7363e88896bU, 0xbebc9b063e5b4209U, 0xbe20c4283e91c32cU, 0xbdef0c31bea31b6cU,
  0x3e5e34143e0779eaU, 0xbe7b845b3e3d1823U, 0x3d2b019fbeb3b3ceU, 0x3e37e8273e35344eU,
  0x3d9725563c180981U, 0xbea0b91f3e388a79U, 0xbea336edbe018056U, 0x3e19c1acbf0a7d31U,
  0xbebf3042be5ece7cU, 0x3e412c57bf05311fU, 0x3df6327a3e12f01eU, 0x3d59e1c33e94fcc4U,
  0xbe9c099dbeefa3f4U, 0xbee051923dae450eU, 0x3d33d2833ef8187fU, 0xbea65d973da3d607U,
  0xbe999c743dfc51feU, 0xbe23ef51be109134U, 0x3dd766c8be2c9a7dU, 0xbe322e943d6d504aU,
  0xbc1793db3d0eea1cU, 0xbec9f8833e890798U, 0xbdba4bbc3ea236abU, 0x3daa058ebf33dbf8U,
  0x3e8b2fdcbbe4931eU, 0x3e5cb7f7bd82a282U, 0xbd97787c3e1ce7fcU, 0xbe786b90bf1600e7U,
  0xbe923b7f3d4f793cU, 0x3e6c1438bed0f8b1U, 0x3e42df2fbe466207U, 0x3e790b75be80b699U,
  0xbf0684d83e529580U, 0x3c00cbdabec9a7b5U, 0x3e47bb3a3e325088U, 0x3d53874c3da95b09U,
  0x3c97c5aa3e50d6e7U, 0xbf6e2a473d35279fU, 0xbe17d9c8be1b1142U, 0xbf3140a33dfb2540U,
  0xbe49e2783e16b2b8U, 0xbdf30722be8d8b65U, 0x3e3911f43e535283U, 0x3d037b093cf56933U,
  0x3e25042b3d466eeaU, 0xbe1becf03eaa7082U, 0x3e444fde3e4e2895U, 0x3e42b032be5ce38bU,
  0xbd94841e3e998024U, 0x3e58b3043d930f0cU, 0x3e9cb8e83d4ecb97U, 0xbe0b09813e6cc841U,
  0xbcbb38cebd18c118U, 0x3c926a433e1e338aU, 0xbe80ce67beeedbe9U, 0x3d8478cd3e197d6eU,
  0xbe113d383d1ce342U, 0xbdc59c88beebe496U, 0xbb44d1b73e128ac0U, 0xbe7f7b4abebb94c7U,
  0xbbf715e7bdd84a8bU, 0x3e83b1393e595fbdU, 0xbd8e527bbeebd574U, 0x3df885d9bde3d4e6U,
  0x3eb9da16be1a6cd6U, 0xbdd9434e3f0906f1U, 0x3e1696173e18da8fU, 0xbe74d8c5bef97972U,
  0xbb437bea3ea70768U, 0x3d9f86dc3e037a22U, 0x3e56e389bea1a576U, 0xbe404d2bbdd1e7b3U,
  0x3e9ae2893d824eaaU, 0x3e65389d3aa8ec32U, 0xbe5e7ee53d3851e8U, 0xbee37faebe79413aU,
  0xbe77c1acbd90d8e2U, 0xbd099c29be4c43b2U, 0x3e1a35d93e03b960U, 0xbed71a4e3e3a936eU,
  0xbd43e25abe0a8fb6U, 0xbddf99063c990fadU, 0xbd450caebdd254dbU, 0xbe6eb25fbe182930U,
  0x3e1d97343e9a991aU, 0x3e1bbbd6bea658beU, 0xbe4e12ecbdffd59fU, 0x3e65b0323e142d7fU,
  0x3d62ca833dc303acU, 0x3e2c53093e9fdd19U, 0xbe112bbcbbf10d0fU, 0xbd21b7ce3df74963U,
  0xbd1cb0babdece0c9U, 0x3e53b21fbe093c0fU, 0xbecac3c6bd32a8b3U, 0x3e8385a43e2a11b2U,
  0x3e716b0abe57dce0U, 0xbe3903c3be1419feU, 0x3def977dbe014ef5U, 0x3e3756003ec362bdU,
  0xbbc9adaebd266f1bU, 0x3ec0f8e63d3a82cbU, 0x3ec2b7f33e4619e8U, 0xbd328b523e8f4a77U,
  0x3d9806323c3cf2c5U, 0x3df2666f3ea3a30eU, 0x3da923283e54dfdeU, 0xbd42c79fbf0ef003U,
  0xbedc887c3e37b3baU, 0x3ccf3522be87eaa7U, 0xbd846aee3e508f76U, 0x3f27160f3d0a321bU,
  0xbf049bbc3e64c273U, 0xbe8ccae5be9de20bU, 0xbdada330be46637fU, 0xbe2d72a43e479b03U,
  0xbe94b67f3ea94346U, 0xbe86d674bda774c9U, 0xbcd3c6143de6227eU, 0x3ddd0b303c5d65b7U,
  0xbdac1f34be028c41U, 0xbf209a673e8088cdU, 0x3dc0f590bdfa957aU, 0x3e80afaebcec8b39U,
  0x3d90f4713d529018U, 0x3df8a914be33a7efU, 0xbea10fdd3ece9b2dU, 0x3d0b4c43bccbc579U,
  0x3e160faa3dbd2698U, 0x3d9bb5e4bd8de73cU, 0x3c9ff16abebbac1cU, 0x3e477ddb3dcf1e76U,
  0x3c83411d3e35a71cU, 0xbd092b6dbea00abcU, 0x3c2e27f9bce61269U, 0xbd94277b3c97d8cdU,
  0x3de2accd3bd765e2U, 0xbd39b5bbbdb037b5U, 0x3e243d2cbd51a15cU, 0x3eab1e4dbc61952bU,
  0x3c900256beb6d742U, 0x3ddad365bdc86b49U, 0x3dc05958be19b57cU, 0x3dba4cad3cd94445U,
  0xbd87ceb13dc2b76dU, 0xbe2964c0be4d9f68U, 0x3ea587963dddc500U, 0xbc0c18eebc9cb9f4U,
  0x3b858cffbe959fddU, 0xbd31691ebca5ecf6U, 0x3e644cb7bec70939U, 0x3c19cadfbeb58940U,
  0x3d68017abd2ba828U, 0xbde288d6be45f399U, 0xbd317aa7bd250f45U, 0x3e0852b6bdc03181U,
  0x3e755a9b3d36a139U, 0x3da70c4dbc477412U, 0x3e363ea0beb304cfU, 0xbda5c6e63ddcc4d5U,
  0x3d499326be8709e6U, 0xbe50c2bfbede3ee1U, 0x3dbf014a3d8f9016U, 0x3b6abdb6be58a0e3U,
  0x3e30ba653ce7ea1fU, 0xbb45a2a33d149bc5U, 0x3d923b3c3cac9a40U, 0x3d9a5a5cbe221489U,
  0xbe3970553e75739eU, 0x3dc5442c3cde7a1eU, 0x3d8866e63d4c71a3U, 0x3da9d691be9078b5U,
  0xbe25e43a3c41febdU, 0xbcf5cca83ccf75ceU, 0xbe3de722be920f86U, 0xbd626d2dbd3edc5aU,
  0x3d5be3c9bdb3788aU, 0x3e9468f9bea543eeU, 0xbe8be9d43e3392d6U, 0x3da5ce943e76c241U,
  0xbd9210f1be273f49U, 0xbe011e2d3d0ce3daU, 0xb908aae73eb68982U, 0xbe6fe43d3d9b229eU,
  0xbe80d93f3d27341eU, 0xbce50b55be79d5ddU, 0xbd917f4f3e035ba7U, 0x3e5f9e30bc7cd827U,
  0xbddece23be02c1f6U, 0xbe3d90b53e03d7beU, 0x3ba5cda83d9aa1eeU, 0x3defdd49bd815effU,
  0xbc7b59e7bec77c40U, 0x3d9be422be9b24deU, 0xbe35e54e3eac4034U, 0xbe8170f93e1f21d8U,
  0x3e50ebff3db029dfU, 0xbe18b1cfbdfebc19U, 0xbe681566be9a1dcbU, 0xbe74d6443c9a300cU,
  0xbda71e86bea0b613U, 0xbd4a76e53e4c7eb3U, 0xbd0505f7be4b5dc2U, 0xbed13b45bd856545U,
  0x3ca0e85b3e980732U, 0x3e01e2403d8f226eU, 0xbe94064d3e09b6bcU, 0x3ca23df43e4efda4U,
  0xbdefaa303cdd28dbU, 0xbddc1b44bdcc0258U, 0x3c9ca6d9be90670fU, 0x3f235408bda521aeU,
  0xbd965606bf98f3ccU, 0xbc943e4cbdb6d8d6U, 0xbe8f915cbea0215bU, 0xbd904373be4aa201U,
  0xbe3b4682ba094490U, 0x3dbd153bbd4b5faeU, 0xbe2dd097be09e496U, 0xbe910b8ebe042d32U,
  0xbe11e77bbe3bb562U, 0x3e8af3fc3dcd1adcU, 0x3eeae131becbcadbU, 0xbe61800ebc9a7f09U,
  0xbeb421943ea1746aU, 0xbc7855b4be86b7a4U, 0xbc9afa9b3e7e0685U, 0xbdcc5b4b3e622491U,
  0xbe8188263e36fb2cU, 0xbf2f5dd13d7f0e51U, 0x3e30d4fc3d913ccbU, 0xbd9bce36bd393ecfU,
  0xbe14b445bdcceec0U, 0xbe265a8fbe360e9bU, 0x3e95a81a3e314099U, 0x3e041232be57d9e2U,
  0xbc7047dfbd09d6e9U, 0xbde38689be81718aU, 0x3e2a2e09be668d2eU, 0x3b7879cbbdf18347U,
  0xbecec0d63c87b7eaU, 0x3ee244993e592d42U, 0xbda49a053e57cd39U, 0xbe4e9b413c0383edU,
  0x3e2cbc743de2472fU, 0xbe2f2f4f3e321408U, 0xbe2fd9793dde5e13U, 0x3de493003d830508U,
  0xbd77699ebe8b0bbfU, 0xbf4c4f8d3e04601cU, 0xbd8d20b2becb4b3dU, 0x3d1648d8bed635f2U,
  0x3e599d3f3e108d78U, 0x3d6e17fb3e42c772U, 0xbe2e1e83bdde1a35U, 0xbc39bc18bd475680U,
  0x3eaa0953be77e794U, 0xbe052cf33e183fa6U, 0x3dd0474e3d92c31fU, 0x3c7d2ac3be9e9268U,
  0x3e8754ebbe180424U, 0x3ec8b002be42d8a4U, 0xbd82f229be020886U, 0xbea136893d9f8cb6U,
  0xbed7d1f8be9aa469U, 0xbe9d27113e2c1046U, 0xbe746a3b3ccaafddU, 0x3e69b91d3ea60aa4U,
  0xbed315493d041ce2U, 0xbf32daabbe281bc3U, 0x3ea8562a3e8e022cU, 0xbd8a250fbe2b9292U,
  0xbdcf34e83c871f28U, 0xbe0f342bbe1b5167U, 0xbd1438f63d8233ccU, 0xbd0f034a3cbc939aU,
  0x3dd5040c3e2773d5U,
};


ai_handle g_digit_cnn_weights_table[1 + 2] = {
  AI_HANDLE_PTR(AI_MAGIC_MARKER),
  AI_HANDLE_PTR(s_digit_cnn_weights_array_u64),
  AI_HANDLE_PTR(AI_MAGIC_MARKER),
};

